{
  "version": "1.0",
  "truncation": null,
  "padding": null,
  "added_tokens": [
    {
      "id": 0,
      "content": "<pad>",
      "single_word": false,
      "lstrip": false,
      "rstrip": false,
      "normalized": false,
      "special": true
    },
    {
      "id": 1,
      "content": "<s>",
      "single_word": false,
      "lstrip": false,
      "rstrip": false,
      "normalized": false,
      "special": true
    },
    {
      "id": 2,
      "content": "</s>",
      "single_word": false,
      "lstrip": false,
      "rstrip": false,
      "normalized": false,
      "special": true
    },
    {
      "id": 3,
      "content": "<unk>",
      "single_word": false,
      "lstrip": false,
      "rstrip": false,
      "normalized": false,
      "special": true
    }
  ],
  "normalizer": {
    "type": "Sequence",
    "normalizers": [
      {
        "type": "NFD"
      },
      {
        "type": "StripAccents"
      }
    ]
  },
  "pre_tokenizer": {
    "type": "Whitespace"
  },
  "post_processor": {
    "type": "TemplateProcessing",
    "single": [
      {
        "SpecialToken": {
          "id": "<s>",
          "type_id": 0
        }
      },
      {
        "Sequence": {
          "id": "A",
          "type_id": 0
        }
      },
      {
        "SpecialToken": {
          "id": "</s>",
          "type_id": 0
        }
      }
    ],
    "pair": [
      {
        "SpecialToken": {
          "id": "<s>",
          "type_id": 0
        }
      },
      {
        "Sequence": {
          "id": "A",
          "type_id": 0
        }
      },
      {
        "SpecialToken": {
          "id": "</s>",
          "type_id": 0
        }
      },
      {
        "Sequence": {
          "id": "B",
          "type_id": 1
        }
      },
      {
        "SpecialToken": {
          "id": "</s>",
          "type_id": 1
        }
      }
    ],
    "special_tokens": {
      "</s>": {
        "id": "</s>",
        "ids": [
          2
        ],
        "tokens": [
          "</s>"
        ]
      },
      "<s>": {
        "id": "<s>",
        "ids": [
          1
        ],
        "tokens": [
          "<s>"
        ]
      }
    }
  },
  "decoder": {
    "type": "WordPiece",
    "prefix": "##",
    "cleanup": true
  },
  "model": {
    "type": "WordPiece",
    "unk_token": "<unk>",
    "continuing_subword_prefix": "##",
    "max_input_chars_per_word": 100,
    "vocab": {
      "<pad>": 0,
      "<s>": 1,
      "</s>": 2,
      "<unk>": 3,
      "!": 4,
      "#": 5,
      "$": 6,
      "%": 7,
      "&": 8,
      "(": 9,
      ")": 10,
      "*": 11,
      "+": 12,
      ",": 13,
      "-": 14,
      ".": 15,
      "/": 16,
      "0": 17,
      "1": 18,
      "2": 19,
      "3": 20,
      "4": 21,
      "5": 22,
      "6": 23,
      "7": 24,
      "8": 25,
      "9": 26,
      ":": 27,
      ";": 28,
      "=": 29,
      "?": 30,
      "@": 31,
      "A": 32,
      "B": 33,
      "C": 34,
      "D": 35,
      "E": 36,
      "F": 37,
      "G": 38,
      "H": 39,
      "I": 40,
      "J": 41,
      "K": 42,
      "L": 43,
      "M": 44,
      "N": 45,
      "O": 46,
      "P": 47,
      "Q": 48,
      "R": 49,
      "S": 50,
      "T": 51,
      "U": 52,
      "V": 53,
      "W": 54,
      "X": 55,
      "Y": 56,
      "Z": 57,
      "\\": 58,
      "^": 59,
      "_": 60,
      "`": 61,
      "a": 62,
      "b": 63,
      "c": 64,
      "d": 65,
      "e": 66,
      "f": 67,
      "g": 68,
      "h": 69,
      "i": 70,
      "j": 71,
      "k": 72,
      "l": 73,
      "m": 74,
      "n": 75,
      "o": 76,
      "p": 77,
      "q": 78,
      "r": 79,
      "s": 80,
      "t": 81,
      "u": 82,
      "v": 83,
      "w": 84,
      "x": 85,
      "y": 86,
      "z": 87,
      "{": 88,
      "}": 89,
      "~": 90,
      "": 91,
      "": 92,
      "": 93,
      "": 94,
      "": 95,
      "": 96,
      "": 97,
      "": 98,
      "": 99,
      "": 100,
      "": 101,
      "": 102,
      "": 103,
      "": 104,
      "": 105,
      "": 106,
      "": 107,
      "": 108,
      "": 109,
      "": 110,
      "": 111,
      "": 112,
      "": 113,
      "": 114,
      "": 115,
      "": 116,
      "": 117,
      "": 118,
      "": 119,
      "": 120,
      "": 121,
      "": 122,
      "¡": 123,
      "¢": 124,
      "£": 125,
      "¤": 126,
      "¥": 127,
      "¦": 128,
      "§": 129,
      "¨": 130,
      "©": 131,
      "ª": 132,
      "«": 133,
      "¬": 134,
      "­": 135,
      "®": 136,
      "¯": 137,
      "°": 138,
      "±": 139,
      "²": 140,
      "³": 141,
      "´": 142,
      "µ": 143,
      "¶": 144,
      "·": 145,
      "¸": 146,
      "¹": 147,
      "º": 148,
      "»": 149,
      "¼": 150,
      "½": 151,
      "¾": 152,
      "¿": 153,
      "Æ": 154,
      "Ð": 155,
      "×": 156,
      "Ø": 157,
      "Þ": 158,
      "ß": 159,
      "æ": 160,
      "ð": 161,
      "÷": 162,
      "ø": 163,
      "þ": 164,
      "Đ": 165,
      "đ": 166,
      "Ħ": 167,
      "ħ": 168,
      "ı": 169,
      "Ĳ": 170,
      "ĳ": 171,
      "ĸ": 172,
      "Ŀ": 173,
      "Ł": 174,
      "ł": 175,
      "ŋ": 176,
      "Œ": 177,
      "œ": 178,
      "Ŧ": 179,
      "ŧ": 180,
      "Ɓ": 181,
      "ƅ": 182,
      "Ɔ": 183,
      "Ɗ": 184,
      "Ə": 185,
      "Ɛ": 186,
      "Ƒ": 187,
      "ƒ": 188,
      "Ƙ": 189,
      "ƙ": 190,
      "Ɲ": 191,
      "ƣ": 192,
      "Ʊ": 193,
      "Ƴ": 194,
      "ƴ": 195,
      "Ƶ": 196,
      "Ʒ": 197,
      "Ƹ": 198,
      "ƹ": 199,
      "ƽ": 200,
      "ǈ": 201,
      "ǌ": 202,
      "ǝ": 203,
      "ȣ": 204,
      "ȷ": 205,
      "ȸ": 206,
      "ȹ": 207,
      "Ƚ": 208,
      "Ɂ": 209,
      "ɐ": 210,
      "ɑ": 211,
      "ɓ": 212,
      "ɔ": 213,
      "ɗ": 214,
      "ə": 215,
      "ɚ": 216,
      "ɛ": 217,
      "ɜ": 218,
      "ɠ": 219,
      "ɡ": 220,
      "ɣ": 221,
      "ɨ": 222,
      "ɪ": 223,
      "ɲ": 224,
      "ɳ": 225,
      "ɵ": 226,
      "ɶ": 227,
      "ɷ": 228,
      "ɹ": 229,
      "ɽ": 230,
      "ɾ": 231,
      "ʀ": 232,
      "ʁ": 233,
      "ʃ": 234,
      "ʇ": 235,
      "ʋ": 236,
      "ʌ": 237,
      "ʒ": 238,
      "ʔ": 239,
      "ʡ": 240,
      "ʢ": 241,
      "ʮ": 242,
      "ʰ": 243,
      "ʱ": 244,
      "ʲ": 245,
      "ʳ": 246,
      "ʴ": 247,
      "ʵ": 248,
      "ʹ": 249,
      "ʺ": 250,
      "ʻ": 251,
      "ʼ": 252,
      "ʽ": 253,
      "ʾ": 254,
      "ʿ": 255,
      "ˆ": 256,
      "ˇ": 257,
      "ˈ": 258,
      "ˉ": 259,
      "ˊ": 260,
      "ˋ": 261,
      "ˌ": 262,
      "ː": 263,
      "˗": 264,
      "˘": 265,
      "˙": 266,
      "˚": 267,
      "˛": 268,
      "˜": 269,
      "˝": 270,
      "ˢ": 271,
      "ˤ": 272,
      "ˮ": 273,
      "˲": 274,
      "˼": 275,
      "˽": 276,
      "˾": 277,
      "Ͱ": 278,
      "ͳ": 279,
      "Ͷ": 280,
      "ͺ": 281,
      "ͻ": 282,
      "ͼ": 283,
      "΄": 284,
      "Α": 285,
      "Β": 286,
      "Γ": 287,
      "Δ": 288,
      "Ε": 289,
      "Ζ": 290,
      "Η": 291,
      "Θ": 292,
      "Ι": 293,
      "Κ": 294,
      "Λ": 295,
      "Μ": 296,
      "Ν": 297,
      "Ξ": 298,
      "Ο": 299,
      "Π": 300,
      "Ρ": 301,
      "Σ": 302,
      "Τ": 303,
      "Υ": 304,
      "Φ": 305,
      "Χ": 306,
      "Ψ": 307,
      "Ω": 308,
      "α": 309,
      "β": 310,
      "γ": 311,
      "δ": 312,
      "ε": 313,
      "ζ": 314,
      "η": 315,
      "θ": 316,
      "ι": 317,
      "κ": 318,
      "λ": 319,
      "μ": 320,
      "ν": 321,
      "ξ": 322,
      "ο": 323,
      "π": 324,
      "ρ": 325,
      "ς": 326,
      "σ": 327,
      "τ": 328,
      "υ": 329,
      "φ": 330,
      "χ": 331,
      "ψ": 332,
      "ω": 333,
      "ϑ": 334,
      "ϒ": 335,
      "ϕ": 336,
      "ϖ": 337,
      "Ϣ": 338,
      "ϵ": 339,
      "Ϸ": 340,
      "ϸ": 341,
      "Ϻ": 342,
      "Ͼ": 343,
      "Ђ": 344,
      "Є": 345,
      "Ѕ": 346,
      "І": 347,
      "Ј": 348,
      "Љ": 349,
      "Њ": 350,
      "Ћ": 351,
      "Џ": 352,
      "А": 353,
      "Б": 354,
      "В": 355,
      "Г": 356,
      "Д": 357,
      "Е": 358,
      "Ж": 359,
      "З": 360,
      "И": 361,
      "К": 362,
      "Л": 363,
      "М": 364,
      "Н": 365,
      "О": 366,
      "П": 367,
      "Р": 368,
      "С": 369,
      "Т": 370,
      "У": 371,
      "Ф": 372,
      "Х": 373,
      "Ц": 374,
      "Ч": 375,
      "Ш": 376,
      "Щ": 377,
      "Ъ": 378,
      "Ы": 379,
      "Ь": 380,
      "Э": 381,
      "Ю": 382,
      "Я": 383,
      "а": 384,
      "б": 385,
      "в": 386,
      "г": 387,
      "д": 388,
      "е": 389,
      "ж": 390,
      "з": 391,
      "и": 392,
      "к": 393,
      "л": 394,
      "м": 395,
      "н": 396,
      "о": 397,
      "п": 398,
      "р": 399,
      "с": 400,
      "т": 401,
      "у": 402,
      "ф": 403,
      "х": 404,
      "ц": 405,
      "ч": 406,
      "ш": 407,
      "щ": 408,
      "ъ": 409,
      "ы": 410,
      "ь": 411,
      "э": 412,
      "ю": 413,
      "я": 414,
      "ђ": 415,
      "є": 416,
      "ѕ": 417,
      "і": 418,
      "ј": 419,
      "љ": 420,
      "њ": 421,
      "ћ": 422,
      "џ": 423,
      "ѥ": 424,
      "ѭ": 425,
      "ѯ": 426,
      "Ѵ": 427,
      "ѹ": 428,
      "ҏ": 429,
      "Ґ": 430,
      "ґ": 431,
      "ғ": 432,
      "ҙ": 433,
      "Қ": 434,
      "қ": 435,
      "Ҡ": 436,
      "ҡ": 437,
      "ң": 438,
      "Ҫ": 439,
      "ҫ": 440,
      "Ү": 441,
      "ү": 442,
      "ұ": 443,
      "Ҳ": 444,
      "ҵ": 445,
      "һ": 446,
      "Ҽ": 447,
      "ҽ": 448,
      "ә": 449,
      "ӡ": 450,
      "Ө": 451,
      "ө": 452,
      "Ӻ": 453,
      "ӿ": 454,
      "Ԁ": 455,
      "ԁ": 456,
      "ԡ": 457,
      "Ԥ": 458,
      "ԭ": 459,
      "Ա": 460,
      "Ժ": 461,
      "Լ": 462,
      "Խ": 463,
      "բ": 464,
      "ձ": 465,
      "ղ": 466,
      "մ": 467,
      "չ": 468,
      "վ": 469,
      "־": 470,
      "׀": 471,
      "א": 472,
      "ב": 473,
      "ג": 474,
      "ד": 475,
      "ה": 476,
      "ו": 477,
      "ז": 478,
      "ח": 479,
      "ט": 480,
      "י": 481,
      "ך": 482,
      "כ": 483,
      "ל": 484,
      "ם": 485,
      "מ": 486,
      "ן": 487,
      "נ": 488,
      "ס": 489,
      "ע": 490,
      "ף": 491,
      "פ": 492,
      "ץ": 493,
      "צ": 494,
      "ק": 495,
      "ר": 496,
      "ש": 497,
      "ת": 498,
      "׬": 499,
      "װ": 500,
      "׳": 501,
      "״": 502,
      "׵": 503,
      "׼": 504,
      "،": 505,
      "؛": 506,
      "؟": 507,
      "ء": 508,
      "ا": 509,
      "ب": 510,
      "ة": 511,
      "ت": 512,
      "ث": 513,
      "ج": 514,
      "ح": 515,
      "خ": 516,
      "د": 517,
      "ذ": 518,
      "ر": 519,
      "ز": 520,
      "س": 521,
      "ش": 522,
      "ص": 523,
      "ض": 524,
      "ط": 525,
      "ظ": 526,
      "ع": 527,
      "غ": 528,
      "ـ": 529,
      "ف": 530,
      "ق": 531,
      "ك": 532,
      "ل": 533,
      "م": 534,
      "ن": 535,
      "ه": 536,
      "و": 537,
      "ى": 538,
      "ي": 539,
      "٠": 540,
      "١": 541,
      "٢": 542,
      "٣": 543,
      "٤": 544,
      "٥": 545,
      "٦": 546,
      "٧": 547,
      "٨": 548,
      "٩": 549,
      "٭": 550,
      "ٱ": 551,
      "ٷ": 552,
      "ٺ": 553,
      "پ": 554,
      "چ": 555,
      "ڈ": 556,
      "ژ": 557,
      "ڤ": 558,
      "ک": 559,
      "گ": 560,
      "ڱ": 561,
      "ڶ": 562,
      "ں": 563,
      "ھ": 564,
      "ہ": 565,
      "ۆ": 566,
      "ی": 567,
      "ے": 568,
      "۰": 569,
      "۱": 570,
      "۲": 571,
      "۳": 572,
      "۴": 573,
      "۵": 574,
      "۶": 575,
      "۷": 576,
      "۸": 577,
      "۹": 578,
      "ۺ": 579,
      "ۿ": 580,
      "܌": 581,
      "ܡ": 582,
      "ݵ": 583,
      "ݸ": 584,
      "޺": 585,
      "ߵ": 586,
      "߶": 587,
      "߷": 588,
      "߹": 589,
      "߻": 590,
      "अ": 591,
      "आ": 592,
      "क": 593,
      "ग": 594,
      "छ": 595,
      "ज": 596,
      "ट": 597,
      "ड": 598,
      "ढ": 599,
      "ण": 600,
      "त": 601,
      "थ": 602,
      "द": 603,
      "न": 604,
      "प": 605,
      "ब": 606,
      "म": 607,
      "य": 608,
      "र": 609,
      "ल": 610,
      "ळ": 611,
      "व": 612,
      "स": 613,
      "ह": 614,
      "ॐ": 615,
      "०": 616,
      "२": 617,
      "४": 618,
      "५": 619,
      "আ": 620,
      "ক": 621,
      "দ": 622,
      "ম": 623,
      "য": 624,
      "র": 625,
      "ল": 626,
      "স": 627,
      "ૻ": 628,
      "଎": 629,
      "୦": 630,
      "୧": 631,
      "୨": 632,
      "୪": 633,
      "୫": 634,
      "୭": 635,
      "୯": 636,
      "ಐ": 637,
      "ಯ": 638,
      "ರ": 639,
      "ವ": 640,
      "ಶ": 641,
      "೦": 642,
      "೧": 643,
      "೨": 644,
      "೪": 645,
      "೫": 646,
      "೭": 647,
      "೯": 648,
      "ഋ": 649,
      "മ": 650,
      "യ": 651,
      "ല": 652,
      "ള": 653,
      "൅": 654,
      "ൺ": 655,
      "ก": 656,
      "ข": 657,
      "ฃ": 658,
      "ค": 659,
      "ง": 660,
      "จ": 661,
      "ฉ": 662,
      "ช": 663,
      "ซ": 664,
      "ญ": 665,
      "ฏ": 666,
      "ฑ": 667,
      "ฒ": 668,
      "ณ": 669,
      "ด": 670,
      "ต": 671,
      "ถ": 672,
      "ท": 673,
      "ธ": 674,
      "น": 675,
      "บ": 676,
      "ป": 677,
      "ผ": 678,
      "ฝ": 679,
      "พ": 680,
      "ฟ": 681,
      "ภ": 682,
      "ม": 683,
      "ย": 684,
      "ร": 685,
      "ล": 686,
      "ว": 687,
      "ศ": 688,
      "ษ": 689,
      "ส": 690,
      "ห": 691,
      "อ": 692,
      "ฯ": 693,
      "ะ": 694,
      "า": 695,
      "ำ": 696,
      "เ": 697,
      "แ": 698,
      "โ": 699,
      "ใ": 700,
      "ไ": 701,
      "ๆ": 702,
      "๑": 703,
      "ງ": 704,
      "ຈ": 705,
      "ນ": 706,
      "ວ": 707,
      "ຽ": 708,
      "་": 709,
      "།": 710,
      "ག": 711,
      "ཐ": 712,
      "ད": 713,
      "ཕ": 714,
      "བ": 715,
      "མ": 716,
      "ဪ": 717,
      "၄": 718,
      "ၓ": 719,
      "ၛ": 720,
      "ၝ": 721,
      "ၡ": 722,
      "ၥ": 723,
      "Ⴃ": 724,
      "Ⴐ": 725,
      "Ⴑ": 726,
      "Ⴓ": 727,
      "Ⴗ": 728,
      "Ⴞ": 729,
      "ა": 730,
      "ბ": 731,
      "გ": 732,
      "დ": 733,
      "ე": 734,
      "ვ": 735,
      "ზ": 736,
      "თ": 737,
      "ი": 738,
      "კ": 739,
      "ლ": 740,
      "მ": 741,
      "ნ": 742,
      "ო": 743,
      "პ": 744,
      "რ": 745,
      "ს": 746,
      "ტ": 747,
      "უ": 748,
      "ფ": 749,
      "ქ": 750,
      "ღ": 751,
      "შ": 752,
      "ც": 753,
      "ძ": 754,
      "წ": 755,
      "ხ": 756,
      "ᄀ": 757,
      "ᄁ": 758,
      "ᄂ": 759,
      "ᄃ": 760,
      "ᄄ": 761,
      "ᄅ": 762,
      "ᄆ": 763,
      "ᄇ": 764,
      "ᄈ": 765,
      "ᄉ": 766,
      "ᄊ": 767,
      "ᄋ": 768,
      "ᄌ": 769,
      "ᄍ": 770,
      "ᄎ": 771,
      "ᄏ": 772,
      "ᄐ": 773,
      "ᄑ": 774,
      "ᄒ": 775,
      "ᅡ": 776,
      "ᅢ": 777,
      "ᅣ": 778,
      "ᅥ": 779,
      "ᅦ": 780,
      "ᅧ": 781,
      "ᅨ": 782,
      "ᅩ": 783,
      "ᅪ": 784,
      "ᅬ": 785,
      "ᅭ": 786,
      "ᅮ": 787,
      "ᅯ": 788,
      "ᅱ": 789,
      "ᅲ": 790,
      "ᅳ": 791,
      "ᅴ": 792,
      "ᅵ": 793,
      "ᆠ": 794,
      "ᆨ": 795,
      "ᆫ": 796,
      "ᆯ": 797,
      "ᆰ": 798,
      "ᆷ": 799,
      "ᆸ": 800,
      "ᆹ": 801,
      "ᆺ": 802,
      "ᆻ": 803,
      "ᆼ": 804,
      "ᆽ": 805,
      "ᆾ": 806,
      "ህ": 807,
      "መ": 808,
      "ሜ": 809,
      "ም": 810,
      "ረ": 811,
      "ር": 812,
      "ስ": 813,
      "ሻ": 814,
      "ቀ": 815,
      "በ": 816,
      "ተ": 817,
      "ት": 818,
      "ቶ": 819,
      "አ": 820,
      "ኣ": 821,
      "እ": 822,
      "ኦ": 823,
      "ክ": 824,
      "ው": 825,
      "ዓ": 826,
      "የ": 827,
      "ይ": 828,
      "ገ": 829,
      "ጨ": 830,
      "ጽ": 831,
      "፣": 832,
      "ᐁ": 833,
      "ᐃ": 834,
      "ᐅ": 835,
      "ᐆ": 836,
      "ᐊ": 837,
      "ᐋ": 838,
      "ᐟ": 839,
      "ᐠ": 840,
      "ᐡ": 841,
      "ᐢ": 842,
      "ᐣ": 843,
      "ᐤ": 844,
      "ᐦ": 845,
      "ᐧ": 846,
      "ᐨ": 847,
      "ᐯ": 848,
      "ᐱ": 849,
      "ᐲ": 850,
      "ᐳ": 851,
      "ᐴ": 852,
      "ᐸ": 853,
      "ᐹ": 854,
      "ᑈ": 855,
      "ᑉ": 856,
      "ᑊ": 857,
      "ᑌ": 858,
      "ᑎ": 859,
      "ᑏ": 860,
      "ᑐ": 861,
      "ᑑ": 862,
      "ᑕ": 863,
      "ᑖ": 864,
      "ᑥ": 865,
      "ᑦ": 866,
      "ᑫ": 867,
      "ᑭ": 868,
      "ᑮ": 869,
      "ᑯ": 870,
      "ᑰ": 871,
      "ᑲ": 872,
      "ᑳ": 873,
      "ᒂ": 874,
      "ᒃ": 875,
      "ᒋ": 876,
      "ᒌ": 877,
      "ᒍ": 878,
      "ᒎ": 879,
      "ᒐ": 880,
      "ᒑ": 881,
      "ᒠ": 882,
      "ᒡ": 883,
      "ᒥ": 884,
      "ᒦ": 885,
      "ᒧ": 886,
      "ᒪ": 887,
      "ᒫ": 888,
      "ᒻ": 889,
      "ᓀ": 890,
      "ᓂ": 891,
      "ᓃ": 892,
      "ᓄ": 893,
      "ᓅ": 894,
      "ᓇ": 895,
      "ᓈ": 896,
      "ᓐ": 897,
      "ᓕ": 898,
      "ᓖ": 899,
      "ᓗ": 900,
      "ᓘ": 901,
      "ᓚ": 902,
      "ᓛ": 903,
      "ᓪ": 904,
      "ᓭ": 905,
      "ᓯ": 906,
      "ᓰ": 907,
      "ᓱ": 908,
      "ᓲ": 909,
      "ᓴ": 910,
      "ᓵ": 911,
      "ᔅ": 912,
      "ᔌ": 913,
      "ᔍ": 914,
      "ᔎ": 915,
      "ᔏ": 916,
      "ᔑ": 917,
      "ᔓ": 918,
      "ᔕ": 919,
      "ᔨ": 920,
      "ᔩ": 921,
      "ᔪ": 922,
      "ᔫ": 923,
      "ᔭ": 924,
      "ᔮ": 925,
      "ᔾ": 926,
      "ᕆ": 927,
      "ᕇ": 928,
      "ᕈ": 929,
      "ᕉ": 930,
      "ᕋ": 931,
      "ᕌ": 932,
      "ᕐ": 933,
      "ᕑ": 934,
      "ᕕ": 935,
      "ᕖ": 936,
      "ᕗ": 937,
      "ᕘ": 938,
      "ᕙ": 939,
      "ᕚ": 940,
      "ᕝ": 941,
      "ᕼ": 942,
      "ᕿ": 943,
      "ᖁ": 944,
      "ᖂ": 945,
      "ᖃ": 946,
      "ᖄ": 947,
      "ᖅ": 948,
      "ᖏ": 949,
      "ᖑ": 950,
      "ᖓ": 951,
      "ᖔ": 952,
      "ᖕ": 953,
      "ᖠ": 954,
      "ᖢ": 955,
      "ᖦ": 956,
      "ᙱ": 957,
      "ᙲ": 958,
      "ᙳ": 959,
      "ᙵ": 960,
      "ᙶ": 961,
      "ᮖ": 962,
      "ᴰ": 963,
      "ᴹ": 964,
      "ᵉ": 965,
      "ᵐ": 966,
      "ᵓ": 967,
      "᾿": 968,
      "​": 969,
      "‌": 970,
      "‍": 971,
      "‎": 972,
      "‏": 973,
      "‐": 974,
      "‑": 975,
      "‒": 976,
      "–": 977,
      "—": 978,
      "―": 979,
      "‖": 980,
      "‘": 981,
      "’": 982,
      "‚": 983,
      "‛": 984,
      "“": 985,
      "”": 986,
      "„": 987,
      "‟": 988,
      "†": 989,
      "‡": 990,
      "•": 991,
      "‣": 992,
      "‥": 993,
      "…": 994,
      "‧": 995,
      "‪": 996,
      "‫": 997,
      "‬": 998,
      "‭": 999,
      "‮": 1000,
      "‰": 1001,
      "′": 1002,
      "″": 1003,
      "‴": 1004,
      "‹": 1005,
      "›": 1006,
      "※": 1007,
      "‾": 1008,
      "⁁": 1009,
      "⁄": 1010,
      "⁏": 1011,
      "⁪": 1012,
      "⁬": 1013,
      "⁭": 1014,
      "⁮": 1015,
      "⁯": 1016,
      "⁰": 1017,
      "⁴": 1018,
      "⁵": 1019,
      "⁷": 1020,
      "⁽": 1021,
      "⁾": 1022,
      "ⁿ": 1023,
      "₀": 1024,
      "₁": 1025,
      "₂": 1026,
      "₤": 1027,
      "₩": 1028,
      "₫": 1029,
      "€": 1030,
      "℃": 1031,
      "ℇ": 1032,
      "ℓ": 1033,
      "№": 1034,
      "ℜ": 1035,
      "℡": 1036,
      "™": 1037,
      "℣": 1038,
      "ℤ": 1039,
      "⅓": 1040,
      "⅔": 1041,
      "⅛": 1042,
      "⅜": 1043,
      "⅝": 1044,
      "⅞": 1045,
      "Ⅱ": 1046,
      "Ⅳ": 1047,
      "←": 1048,
      "↑": 1049,
      "→": 1050,
      "↓": 1051,
      "↔": 1052,
      "↕": 1053,
      "↗": 1054,
      "↘": 1055,
      "↝": 1056,
      "↵": 1057,
      "⇅": 1058,
      "⇆": 1059,
      "⇌": 1060,
      "⇑": 1061,
      "⇒": 1062,
      "⇓": 1063,
      "⇔": 1064,
      "⇕": 1065,
      "⇗": 1066,
      "⇘": 1067,
      "⇙": 1068,
      "⇢": 1069,
      "⇨": 1070,
      "∀": 1071,
      "∂": 1072,
      "∃": 1073,
      "∅": 1074,
      "∆": 1075,
      "∇": 1076,
      "∈": 1077,
      "∋": 1078,
      "∍": 1079,
      "∏": 1080,
      "∑": 1081,
      "−": 1082,
      "∕": 1083,
      "∗": 1084,
      "∘": 1085,
      "∙": 1086,
      "√": 1087,
      "∝": 1088,
      "∞": 1089,
      "∩": 1090,
      "∪": 1091,
      "∫": 1092,
      "∴": 1093,
      "∶": 1094,
      "∼": 1095,
      "≅": 1096,
      "≈": 1097,
      "≍": 1098,
      "≡": 1099,
      "≤": 1100,
      "≥": 1101,
      "≪": 1102,
      "≫": 1103,
      "⊂": 1104,
      "⊃": 1105,
      "⊇": 1106,
      "⊔": 1107,
      "⊕": 1108,
      "⊠": 1109,
      "⊥": 1110,
      "⊳": 1111,
      "⋅": 1112,
      "⋞": 1113,
      "⋟": 1114,
      "⌂": 1115,
      "⌃": 1116,
      "⌋": 1117,
      "⌘": 1118,
      "⌠": 1119,
      "⌦": 1120,
      "⌧": 1121,
      "⌫": 1122,
      "⎛": 1123,
      "⎜": 1124,
      "⎝": 1125,
      "⎞": 1126,
      "⎟": 1127,
      "⎠": 1128,
      "⎡": 1129,
      "⎢": 1130,
      "⎣": 1131,
      "⎤": 1132,
      "⎥": 1133,
      "⎦": 1134,
      "⎧": 1135,
      "⎨": 1136,
      "⎩": 1137,
      "⎮": 1138,
      "⎯": 1139,
      "⏐": 1140,
      "⏹": 1141,
      "①": 1142,
      "②": 1143,
      "③": 1144,
      "Ⓓ": 1145,
      "─": 1146,
      "━": 1147,
      "│": 1148,
      "┌": 1149,
      "┐": 1150,
      "└": 1151,
      "┬": 1152,
      "┴": 1153,
      "║": 1154,
      "╔": 1155,
      "╚": 1156,
      "╦": 1157,
      "╩": 1158,
      "╬": 1159,
      "▀": 1160,
      "█": 1161,
      "▌": 1162,
      "▐": 1163,
      "░": 1164,
      "▒": 1165,
      "▓": 1166,
      "▘": 1167,
      "■": 1168,
      "□": 1169,
      "▢": 1170,
      "▧": 1171,
      "▪": 1172,
      "▫": 1173,
      "▬": 1174,
      "▲": 1175,
      "△": 1176,
      "▵": 1177,
      "▷": 1178,
      "▸": 1179,
      "►": 1180,
      "▼": 1181,
      "◄": 1182,
      "◆": 1183,
      "◇": 1184,
      "◊": 1185,
      "○": 1186,
      "◎": 1187,
      "●": 1188,
      "◗": 1189,
      "◘": 1190,
      "◙": 1191,
      "◦": 1192,
      "☀": 1193,
      "★": 1194,
      "☆": 1195,
      "☎": 1196,
      "☐": 1197,
      "☑": 1198,
      "☛": 1199,
      "☯": 1200,
      "☺": 1201,
      "☻": 1202,
      "☼": 1203,
      "♀": 1204,
      "♂": 1205,
      "♒": 1206,
      "♕": 1207,
      "♠": 1208,
      "♣": 1209,
      "♥": 1210,
      "♦": 1211,
      "♪": 1212,
      "♫": 1213,
      "♲": 1214,
      "✁": 1215,
      "✂": 1216,
      "✃": 1217,
      "✄": 1218,
      "✆": 1219,
      "✇": 1220,
      "✈": 1221,
      "✉": 1222,
      "✍": 1223,
      "✏": 1224,
      "✐": 1225,
      "✓": 1226,
      "✔": 1227,
      "✕": 1228,
      "✖": 1229,
      "✗": 1230,
      "✘": 1231,
      "✜": 1232,
      "✝": 1233,
      "✢": 1234,
      "✤": 1235,
      "✦": 1236,
      "✧": 1237,
      "✭": 1238,
      "✱": 1239,
      "✳": 1240,
      "✴": 1241,
      "✵": 1242,
      "✿": 1243,
      "❁": 1244,
      "❆": 1245,
      "❈": 1246,
      "❊": 1247,
      "❋": 1248,
      "❍": 1249,
      "❏": 1250,
      "❐": 1251,
      "❑": 1252,
      "❒": 1253,
      "❖": 1254,
      "❙": 1255,
      "❚": 1256,
      "❯": 1257,
      "❶": 1258,
      "❷": 1259,
      "➀": 1260,
      "➁": 1261,
      "➄": 1262,
      "➊": 1263,
      "➋": 1264,
      "➌": 1265,
      "➍": 1266,
      "➎": 1267,
      "➏": 1268,
      "➑": 1269,
      "➓": 1270,
      "➔": 1271,
      "➘": 1272,
      "➙": 1273,
      "➚": 1274,
      "➛": 1275,
      "➜": 1276,
      "➝": 1277,
      "➞": 1278,
      "➟": 1279,
      "➠": 1280,
      "➡": 1281,
      "➢": 1282,
      "➣": 1283,
      "➤": 1284,
      "➥": 1285,
      "➧": 1286,
      "➨": 1287,
      "➩": 1288,
      "➪": 1289,
      "➫": 1290,
      "➮": 1291,
      "➯": 1292,
      "➲": 1293,
      "➾": 1294,
      "⡣": 1295,
      "⣬": 1296,
      "、": 1297,
      "。": 1298,
      "々": 1299,
      "〈": 1300,
      "〉": 1301,
      "《": 1302,
      "》": 1303,
      "「": 1304,
      "」": 1305,
      "『": 1306,
      "』": 1307,
      "【": 1308,
      "】": 1309,
      "〜": 1310,
      "あ": 1311,
      "い": 1312,
      "う": 1313,
      "え": 1314,
      "お": 1315,
      "か": 1316,
      "き": 1317,
      "く": 1318,
      "け": 1319,
      "こ": 1320,
      "さ": 1321,
      "し": 1322,
      "す": 1323,
      "せ": 1324,
      "そ": 1325,
      "た": 1326,
      "ち": 1327,
      "っ": 1328,
      "つ": 1329,
      "て": 1330,
      "と": 1331,
      "な": 1332,
      "に": 1333,
      "ぬ": 1334,
      "ね": 1335,
      "の": 1336,
      "は": 1337,
      "ひ": 1338,
      "ふ": 1339,
      "へ": 1340,
      "ほ": 1341,
      "ま": 1342,
      "み": 1343,
      "む": 1344,
      "め": 1345,
      "も": 1346,
      "ゃ": 1347,
      "や": 1348,
      "ゅ": 1349,
      "ゆ": 1350,
      "ょ": 1351,
      "よ": 1352,
      "ら": 1353,
      "り": 1354,
      "る": 1355,
      "れ": 1356,
      "ろ": 1357,
      "わ": 1358,
      "を": 1359,
      "ん": 1360,
      "ァ": 1361,
      "ア": 1362,
      "ィ": 1363,
      "イ": 1364,
      "ウ": 1365,
      "エ": 1366,
      "ォ": 1367,
      "オ": 1368,
      "カ": 1369,
      "キ": 1370,
      "ク": 1371,
      "ケ": 1372,
      "コ": 1373,
      "サ": 1374,
      "シ": 1375,
      "ス": 1376,
      "セ": 1377,
      "ソ": 1378,
      "タ": 1379,
      "チ": 1380,
      "ッ": 1381,
      "ツ": 1382,
      "テ": 1383,
      "ト": 1384,
      "ナ": 1385,
      "ニ": 1386,
      "ヌ": 1387,
      "ネ": 1388,
      "ノ": 1389,
      "ハ": 1390,
      "ヒ": 1391,
      "フ": 1392,
      "ヘ": 1393,
      "ホ": 1394,
      "マ": 1395,
      "ミ": 1396,
      "ム": 1397,
      "メ": 1398,
      "モ": 1399,
      "ャ": 1400,
      "ヤ": 1401,
      "ュ": 1402,
      "ユ": 1403,
      "ョ": 1404,
      "ヨ": 1405,
      "ラ": 1406,
      "リ": 1407,
      "ル": 1408,
      "レ": 1409,
      "ロ": 1410,
      "ワ": 1411,
      "ン": 1412,
      "・": 1413,
      "ー": 1414,
      "ㄅ": 1415,
      "ㄊ": 1416,
      "ㄕ": 1417,
      "ㄞ": 1418,
      "ㄟ": 1419,
      "ㄣ": 1420,
      "ㄤ": 1421,
      "ㄧ": 1422,
      "ㅎ": 1423,
      "㣬": 1424,
      "㵼": 1425,
      "䁲": 1426,
      "䨂": 1427,
      "䨢": 1428,
      "䰂": 1429,
      "䰄": 1430,
      "䰚": 1431,
      "䰦": 1432,
      "䰨": 1433,
      "䰪": 1434,
      "一": 1435,
      "丁": 1436,
      "七": 1437,
      "万": 1438,
      "丈": 1439,
      "三": 1440,
      "上": 1441,
      "下": 1442,
      "不": 1443,
      "与": 1444,
      "专": 1445,
      "世": 1446,
      "业": 1447,
      "东": 1448,
      "两": 1449,
      "严": 1450,
      "丨": 1451,
      "个": 1452,
      "中": 1453,
      "丰": 1454,
      "临": 1455,
      "丸": 1456,
      "丹": 1457,
      "为": 1458,
      "主": 1459,
      "丽": 1460,
      "举": 1461,
      "乃": 1462,
      "久": 1463,
      "么": 1464,
      "义": 1465,
      "之": 1466,
      "乌": 1467,
      "乎": 1468,
      "乏": 1469,
      "乐": 1470,
      "乗": 1471,
      "九": 1472,
      "也": 1473,
      "习": 1474,
      "书": 1475,
      "买": 1476,
      "了": 1477,
      "予": 1478,
      "争": 1479,
      "事": 1480,
      "二": 1481,
      "于": 1482,
      "云": 1483,
      "互": 1484,
      "五": 1485,
      "井": 1486,
      "亚": 1487,
      "些": 1488,
      "交": 1489,
      "产": 1490,
      "享": 1491,
      "京": 1492,
      "人": 1493,
      "亿": 1494,
      "仁": 1495,
      "今": 1496,
      "介": 1497,
      "仍": 1498,
      "从": 1499,
      "他": 1500,
      "付": 1501,
      "仙": 1502,
      "代": 1503,
      "令": 1504,
      "以": 1505,
      "们": 1506,
      "仲": 1507,
      "件": 1508,
      "价": 1509,
      "任": 1510,
      "份": 1511,
      "企": 1512,
      "伊": 1513,
      "伏": 1514,
      "休": 1515,
      "众": 1516,
      "优": 1517,
      "会": 1518,
      "伝": 1519,
      "传": 1520,
      "伦": 1521,
      "伯": 1522,
      "估": 1523,
      "伴": 1524,
      "伶": 1525,
      "伸": 1526,
      "似": 1527,
      "但": 1528,
      "佈": 1529,
      "位": 1530,
      "低": 1531,
      "住": 1532,
      "佐": 1533,
      "佑": 1534,
      "体": 1535,
      "何": 1536,
      "余": 1537,
      "佛": 1538,
      "作": 1539,
      "佩": 1540,
      "佰": 1541,
      "佱": 1542,
      "佳": 1543,
      "使": 1544,
      "例": 1545,
      "供": 1546,
      "依": 1547,
      "価": 1548,
      "便": 1549,
      "促": 1550,
      "俄": 1551,
      "俊": 1552,
      "保": 1553,
      "信": 1554,
      "修": 1555,
      "倍": 1556,
      "倒": 1557,
      "候": 1558,
      "借": 1559,
      "値": 1560,
      "债": 1561,
      "值": 1562,
      "假": 1563,
      "做": 1564,
      "停": 1565,
      "健": 1566,
      "偵": 1567,
      "偶": 1568,
      "偿": 1569,
      "傅": 1570,
      "備": 1571,
      "储": 1572,
      "催": 1573,
      "像": 1574,
      "僕": 1575,
      "僚": 1576,
      "儀": 1577,
      "儒": 1578,
      "優": 1579,
      "儿": 1580,
      "允": 1581,
      "元": 1582,
      "充": 1583,
      "兆": 1584,
      "先": 1585,
      "光": 1586,
      "克": 1587,
      "免": 1588,
      "児": 1589,
      "兒": 1590,
      "入": 1591,
      "全": 1592,
      "八": 1593,
      "公": 1594,
      "六": 1595,
      "兰": 1596,
      "共": 1597,
      "关": 1598,
      "兵": 1599,
      "其": 1600,
      "具": 1601,
      "典": 1602,
      "兹": 1603,
      "养": 1604,
      "兽": 1605,
      "内": 1606,
      "円": 1607,
      "册": 1608,
      "再": 1609,
      "写": 1610,
      "军": 1611,
      "农": 1612,
      "冠": 1613,
      "冤": 1614,
      "冰": 1615,
      "冲": 1616,
      "决": 1617,
      "况": 1618,
      "冶": 1619,
      "冷": 1620,
      "净": 1621,
      "凄": 1622,
      "准": 1623,
      "减": 1624,
      "几": 1625,
      "凡": 1626,
      "凭": 1627,
      "凯": 1628,
      "凸": 1629,
      "出": 1630,
      "击": 1631,
      "函": 1632,
      "分": 1633,
      "切": 1634,
      "刑": 1635,
      "划": 1636,
      "列": 1637,
      "刘": 1638,
      "则": 1639,
      "刚": 1640,
      "创": 1641,
      "初": 1642,
      "判": 1643,
      "別": 1644,
      "利": 1645,
      "别": 1646,
      "到": 1647,
      "制": 1648,
      "刷": 1649,
      "券": 1650,
      "刺": 1651,
      "剃": 1652,
      "則": 1653,
      "前": 1654,
      "剑": 1655,
      "剥": 1656,
      "剩": 1657,
      "副": 1658,
      "創": 1659,
      "劃": 1660,
      "劇": 1661,
      "力": 1662,
      "办": 1663,
      "功": 1664,
      "加": 1665,
      "务": 1666,
      "动": 1667,
      "助": 1668,
      "努": 1669,
      "励": 1670,
      "劳": 1671,
      "势": 1672,
      "勒": 1673,
      "動": 1674,
      "勘": 1675,
      "務": 1676,
      "勞": 1677,
      "勢": 1678,
      "包": 1679,
      "匈": 1680,
      "化": 1681,
      "北": 1682,
      "区": 1683,
      "医": 1684,
      "匿": 1685,
      "區": 1686,
      "十": 1687,
      "千": 1688,
      "升": 1689,
      "午": 1690,
      "华": 1691,
      "协": 1692,
      "卓": 1693,
      "協": 1694,
      "单": 1695,
      "南": 1696,
      "単": 1697,
      "博": 1698,
      "占": 1699,
      "卡": 1700,
      "卢": 1701,
      "卫": 1702,
      "印": 1703,
      "危": 1704,
      "即": 1705,
      "却": 1706,
      "厂": 1707,
      "厄": 1708,
      "厅": 1709,
      "厉": 1710,
      "原": 1711,
      "厨": 1712,
      "去": 1713,
      "参": 1714,
      "參": 1715,
      "又": 1716,
      "及": 1717,
      "友": 1718,
      "反": 1719,
      "収": 1720,
      "发": 1721,
      "取": 1722,
      "受": 1723,
      "变": 1724,
      "叙": 1725,
      "叟": 1726,
      "口": 1727,
      "古": 1728,
      "句": 1729,
      "另": 1730,
      "只": 1731,
      "叫": 1732,
      "可": 1733,
      "台": 1734,
      "号": 1735,
      "司": 1736,
      "吁": 1737,
      "各": 1738,
      "合": 1739,
      "吉": 1740,
      "吊": 1741,
      "同": 1742,
      "名": 1743,
      "后": 1744,
      "向": 1745,
      "吗": 1746,
      "吟": 1747,
      "否": 1748,
      "吧": 1749,
      "吨": 1750,
      "含": 1751,
      "启": 1752,
      "吴": 1753,
      "吹": 1754,
      "呂": 1755,
      "呆": 1756,
      "告": 1757,
      "员": 1758,
      "周": 1759,
      "味": 1760,
      "呼": 1761,
      "和": 1762,
      "咨": 1763,
      "咬": 1764,
      "品": 1765,
      "哈": 1766,
      "响": 1767,
      "員": 1768,
      "哥": 1769,
      "唱": 1770,
      "唸": 1771,
      "商": 1772,
      "問": 1773,
      "啓": 1774,
      "啦": 1775,
      "喂": 1776,
      "善": 1777,
      "喜": 1778,
      "單": 1779,
      "嗎": 1780,
      "嘉": 1781,
      "嘛": 1782,
      "噌": 1783,
      "器": 1784,
      "囚": 1785,
      "四": 1786,
      "回": 1787,
      "因": 1788,
      "团": 1789,
      "団": 1790,
      "囧": 1791,
      "园": 1792,
      "困": 1793,
      "囲": 1794,
      "围": 1795,
      "国": 1796,
      "图": 1797,
      "圆": 1798,
      "國": 1799,
      "圍": 1800,
      "園": 1801,
      "圓": 1802,
      "圖": 1803,
      "土": 1804,
      "圣": 1805,
      "在": 1806,
      "圭": 1807,
      "地": 1808,
      "场": 1809,
      "址": 1810,
      "坂": 1811,
      "均": 1812,
      "坐": 1813,
      "坑": 1814,
      "坚": 1815,
      "坛": 1816,
      "坦": 1817,
      "垂": 1818,
      "型": 1819,
      "垒": 1820,
      "埃": 1821,
      "城": 1822,
      "埕": 1823,
      "域": 1824,
      "埵": 1825,
      "執": 1826,
      "培": 1827,
      "基": 1828,
      "堂": 1829,
      "堡": 1830,
      "報": 1831,
      "場": 1832,
      "塊": 1833,
      "塔": 1834,
      "塗": 1835,
      "塞": 1836,
      "塾": 1837,
      "境": 1838,
      "墅": 1839,
      "增": 1840,
      "墨": 1841,
      "壊": 1842,
      "士": 1843,
      "声": 1844,
      "壹": 1845,
      "处": 1846,
      "备": 1847,
      "変": 1848,
      "复": 1849,
      "外": 1850,
      "多": 1851,
      "夜": 1852,
      "够": 1853,
      "夠": 1854,
      "大": 1855,
      "天": 1856,
      "太": 1857,
      "夫": 1858,
      "央": 1859,
      "失": 1860,
      "头": 1861,
      "夷": 1862,
      "奈": 1863,
      "奉": 1864,
      "套": 1865,
      "奥": 1866,
      "女": 1867,
      "奶": 1868,
      "奸": 1869,
      "好": 1870,
      "如": 1871,
      "妖": 1872,
      "妨": 1873,
      "妮": 1874,
      "妻": 1875,
      "姆": 1876,
      "始": 1877,
      "姓": 1878,
      "委": 1879,
      "姦": 1880,
      "姫": 1881,
      "威": 1882,
      "娅": 1883,
      "娜": 1884,
      "娱": 1885,
      "婆": 1886,
      "媒": 1887,
      "媛": 1888,
      "嫁": 1889,
      "嫩": 1890,
      "嬉": 1891,
      "子": 1892,
      "孔": 1893,
      "字": 1894,
      "存": 1895,
      "孟": 1896,
      "季": 1897,
      "学": 1898,
      "學": 1899,
      "宁": 1900,
      "它": 1901,
      "宅": 1902,
      "宇": 1903,
      "安": 1904,
      "宋": 1905,
      "完": 1906,
      "宏": 1907,
      "宗": 1908,
      "官": 1909,
      "定": 1910,
      "宛": 1911,
      "宜": 1912,
      "宝": 1913,
      "实": 1914,
      "実": 1915,
      "审": 1916,
      "客": 1917,
      "宣": 1918,
      "室": 1919,
      "宪": 1920,
      "宫": 1921,
      "宮": 1922,
      "害": 1923,
      "家": 1924,
      "容": 1925,
      "宾": 1926,
      "宿": 1927,
      "寄": 1928,
      "富": 1929,
      "寓": 1930,
      "察": 1931,
      "實": 1932,
      "寸": 1933,
      "对": 1934,
      "寺": 1935,
      "寻": 1936,
      "导": 1937,
      "対": 1938,
      "寿": 1939,
      "射": 1940,
      "将": 1941,
      "專": 1942,
      "尊": 1943,
      "對": 1944,
      "小": 1945,
      "少": 1946,
      "尔": 1947,
      "尙": 1948,
      "尤": 1949,
      "就": 1950,
      "尼": 1951,
      "尽": 1952,
      "尾": 1953,
      "局": 1954,
      "层": 1955,
      "屄": 1956,
      "居": 1957,
      "屈": 1958,
      "届": 1959,
      "屋": 1960,
      "屑": 1961,
      "展": 1962,
      "属": 1963,
      "山": 1964,
      "岐": 1965,
      "岛": 1966,
      "岡": 1967,
      "岩": 1968,
      "岭": 1969,
      "峒": 1970,
      "峡": 1971,
      "峪": 1972,
      "島": 1973,
      "峻": 1974,
      "崎": 1975,
      "嵐": 1976,
      "嶺": 1977,
      "川": 1978,
      "州": 1979,
      "巡": 1980,
      "工": 1981,
      "巨": 1982,
      "巫": 1983,
      "差": 1984,
      "已": 1985,
      "巴": 1986,
      "市": 1987,
      "布": 1988,
      "帆": 1989,
      "师": 1990,
      "希": 1991,
      "帐": 1992,
      "帝": 1993,
      "带": 1994,
      "師": 1995,
      "席": 1996,
      "帮": 1997,
      "帰": 1998,
      "帳": 1999,
      "常": 2000,
      "幌": 2001,
      "幣": 2002,
      "干": 2003,
      "平": 2004,
      "年": 2005,
      "并": 2006,
      "幸": 2007,
      "幹": 2008,
      "幾": 2009,
      "广": 2010,
      "庁": 2011,
      "広": 2012,
      "庄": 2013,
      "庆": 2014,
      "床": 2015,
      "序": 2016,
      "库": 2017,
      "应": 2018,
      "店": 2019,
      "府": 2020,
      "废": 2021,
      "度": 2022,
      "座": 2023,
      "庫": 2024,
      "庭": 2025,
      "康": 2026,
      "庸": 2027,
      "廉": 2028,
      "廚": 2029,
      "廣": 2030,
      "延": 2031,
      "廷": 2032,
      "建": 2033,
      "开": 2034,
      "异": 2035,
      "弃": 2036,
      "弄": 2037,
      "式": 2038,
      "引": 2039,
      "弗": 2040,
      "张": 2041,
      "弱": 2042,
      "强": 2043,
      "弾": 2044,
      "当": 2045,
      "录": 2046,
      "形": 2047,
      "影": 2048,
      "役": 2049,
      "往": 2050,
      "征": 2051,
      "径": 2052,
      "待": 2053,
      "律": 2054,
      "後": 2055,
      "徐": 2056,
      "徒": 2057,
      "得": 2058,
      "御": 2059,
      "復": 2060,
      "循": 2061,
      "微": 2062,
      "徳": 2063,
      "德": 2064,
      "心": 2065,
      "必": 2066,
      "忆": 2067,
      "忍": 2068,
      "志": 2069,
      "忘": 2070,
      "忙": 2071,
      "応": 2072,
      "忠": 2073,
      "快": 2074,
      "念": 2075,
      "忻": 2076,
      "忽": 2077,
      "态": 2078,
      "思": 2079,
      "怡": 2080,
      "急": 2081,
      "性": 2082,
      "总": 2083,
      "恒": 2084,
      "恢": 2085,
      "恩": 2086,
      "息": 2087,
      "恵": 2088,
      "悠": 2089,
      "悩": 2090,
      "悬": 2091,
      "情": 2092,
      "惧": 2093,
      "惨": 2094,
      "惯": 2095,
      "想": 2096,
      "意": 2097,
      "愛": 2098,
      "感": 2099,
      "愿": 2100,
      "態": 2101,
      "慣": 2102,
      "慶": 2103,
      "憶": 2104,
      "憾": 2105,
      "戈": 2106,
      "成": 2107,
      "我": 2108,
      "或": 2109,
      "战": 2110,
      "戯": 2111,
      "戴": 2112,
      "戶": 2113,
      "户": 2114,
      "戸": 2115,
      "房": 2116,
      "所": 2117,
      "扈": 2118,
      "手": 2119,
      "才": 2120,
      "打": 2121,
      "払": 2122,
      "托": 2123,
      "执": 2124,
      "扩": 2125,
      "扬": 2126,
      "批": 2127,
      "找": 2128,
      "承": 2129,
      "技": 2130,
      "把": 2131,
      "投": 2132,
      "抗": 2133,
      "折": 2134,
      "抜": 2135,
      "护": 2136,
      "报": 2137,
      "抵": 2138,
      "抹": 2139,
      "担": 2140,
      "拉": 2141,
      "拓": 2142,
      "招": 2143,
      "拜": 2144,
      "拟": 2145,
      "拥": 2146,
      "拨": 2147,
      "择": 2148,
      "括": 2149,
      "拳": 2150,
      "拼": 2151,
      "拿": 2152,
      "持": 2153,
      "指": 2154,
      "按": 2155,
      "挑": 2156,
      "挠": 2157,
      "挡": 2158,
      "挪": 2159,
      "挿": 2160,
      "捐": 2161,
      "损": 2162,
      "换": 2163,
      "据": 2164,
      "捷": 2165,
      "授": 2166,
      "掉": 2167,
      "掌": 2168,
      "排": 2169,
      "探": 2170,
      "接": 2171,
      "控": 2172,
      "推": 2173,
      "措": 2174,
      "掻": 2175,
      "揃": 2176,
      "提": 2177,
      "換": 2178,
      "握": 2179,
      "揭": 2180,
      "援": 2181,
      "搁": 2182,
      "損": 2183,
      "搗": 2184,
      "搞": 2185,
      "搬": 2186,
      "摆": 2187,
      "摇": 2188,
      "摊": 2189,
      "摘": 2190,
      "摩": 2191,
      "撒": 2192,
      "撤": 2193,
      "播": 2194,
      "撮": 2195,
      "擁": 2196,
      "操": 2197,
      "擢": 2198,
      "支": 2199,
      "收": 2200,
      "改": 2201,
      "放": 2202,
      "政": 2203,
      "故": 2204,
      "效": 2205,
      "敌": 2206,
      "敏": 2207,
      "救": 2208,
      "教": 2209,
      "散": 2210,
      "数": 2211,
      "整": 2212,
      "敷": 2213,
      "文": 2214,
      "斎": 2215,
      "斗": 2216,
      "料": 2217,
      "斤": 2218,
      "断": 2219,
      "斯": 2220,
      "新": 2221,
      "方": 2222,
      "於": 2223,
      "施": 2224,
      "旅": 2225,
      "旗": 2226,
      "无": 2227,
      "日": 2228,
      "旦": 2229,
      "旨": 2230,
      "早": 2231,
      "旱": 2232,
      "时": 2233,
      "明": 2234,
      "易": 2235,
      "星": 2236,
      "映": 2237,
      "春": 2238,
      "昨": 2239,
      "昭": 2240,
      "是": 2241,
      "显": 2242,
      "時": 2243,
      "晏": 2244,
      "晚": 2245,
      "普": 2246,
      "景": 2247,
      "晶": 2248,
      "智": 2249,
      "暂": 2250,
      "暖": 2251,
      "暫": 2252,
      "暴": 2253,
      "曲": 2254,
      "更": 2255,
      "書": 2256,
      "曹": 2257,
      "曼": 2258,
      "替": 2259,
      "最": 2260,
      "會": 2261,
      "月": 2262,
      "有": 2263,
      "朋": 2264,
      "服": 2265,
      "朗": 2266,
      "望": 2267,
      "朝": 2268,
      "期": 2269,
      "木": 2270,
      "未": 2271,
      "本": 2272,
      "札": 2273,
      "术": 2274,
      "朱": 2275,
      "机": 2276,
      "杂": 2277,
      "权": 2278,
      "李": 2279,
      "材": 2280,
      "村": 2281,
      "束": 2282,
      "条": 2283,
      "来": 2284,
      "杨": 2285,
      "杭": 2286,
      "東": 2287,
      "松": 2288,
      "板": 2289,
      "极": 2290,
      "构": 2291,
      "析": 2292,
      "林": 2293,
      "枚": 2294,
      "果": 2295,
      "枝": 2296,
      "枪": 2297,
      "架": 2298,
      "柏": 2299,
      "染": 2300,
      "柚": 2301,
      "查": 2302,
      "柳": 2303,
      "柴": 2304,
      "栃": 2305,
      "栄": 2306,
      "标": 2307,
      "树": 2308,
      "校": 2309,
      "株": 2310,
      "样": 2311,
      "核": 2312,
      "根": 2313,
      "格": 2314,
      "桃": 2315,
      "框": 2316,
      "案": 2317,
      "桑": 2318,
      "桓": 2319,
      "桜": 2320,
      "桢": 2321,
      "档": 2322,
      "桥": 2323,
      "梅": 2324,
      "梨": 2325,
      "梯": 2326,
      "械": 2327,
      "梶": 2328,
      "检": 2329,
      "棋": 2330,
      "棒": 2331,
      "森": 2332,
      "植": 2333,
      "楠": 2334,
      "業": 2335,
      "楼": 2336,
      "楽": 2337,
      "概": 2338,
      "槍": 2339,
      "様": 2340,
      "樊": 2341,
      "模": 2342,
      "横": 2343,
      "樹": 2344,
      "橋": 2345,
      "機": 2346,
      "檔": 2347,
      "權": 2348,
      "次": 2349,
      "欢": 2350,
      "欧": 2351,
      "款": 2352,
      "歌": 2353,
      "歐": 2354,
      "止": 2355,
      "正": 2356,
      "此": 2357,
      "步": 2358,
      "武": 2359,
      "歩": 2360,
      "死": 2361,
      "残": 2362,
      "殖": 2363,
      "殘": 2364,
      "段": 2365,
      "殺": 2366,
      "殿": 2367,
      "母": 2368,
      "毎": 2369,
      "每": 2370,
      "毒": 2371,
      "比": 2372,
      "毛": 2373,
      "氏": 2374,
      "民": 2375,
      "气": 2376,
      "気": 2377,
      "氣": 2378,
      "氧": 2379,
      "氮": 2380,
      "水": 2381,
      "永": 2382,
      "汁": 2383,
      "求": 2384,
      "汉": 2385,
      "江": 2386,
      "池": 2387,
      "汤": 2388,
      "汶": 2389,
      "沒": 2390,
      "沖": 2391,
      "沙": 2392,
      "没": 2393,
      "沢": 2394,
      "河": 2395,
      "油": 2396,
      "治": 2397,
      "況": 2398,
      "泄": 2399,
      "泉": 2400,
      "泊": 2401,
      "法": 2402,
      "波": 2403,
      "泥": 2404,
      "注": 2405,
      "泰": 2406,
      "泳": 2407,
      "泽": 2408,
      "洁": 2409,
      "洋": 2410,
      "洒": 2411,
      "洗": 2412,
      "洛": 2413,
      "津": 2414,
      "洪": 2415,
      "洱": 2416,
      "洲": 2417,
      "活": 2418,
      "派": 2419,
      "流": 2420,
      "浄": 2421,
      "浅": 2422,
      "浆": 2423,
      "测": 2424,
      "济": 2425,
      "浙": 2426,
      "浜": 2427,
      "浦": 2428,
      "浴": 2429,
      "海": 2430,
      "涂": 2431,
      "消": 2432,
      "涉": 2433,
      "涌": 2434,
      "涨": 2435,
      "涩": 2436,
      "深": 2437,
      "淹": 2438,
      "添": 2439,
      "清": 2440,
      "済": 2441,
      "渋": 2442,
      "渐": 2443,
      "温": 2444,
      "港": 2445,
      "渴": 2446,
      "游": 2447,
      "湄": 2448,
      "湖": 2449,
      "湘": 2450,
      "湯": 2451,
      "湾": 2452,
      "満": 2453,
      "溉": 2454,
      "源": 2455,
      "溜": 2456,
      "溢": 2457,
      "溯": 2458,
      "溶": 2459,
      "滑": 2460,
      "滝": 2461,
      "满": 2462,
      "滩": 2463,
      "漏": 2464,
      "演": 2465,
      "漢": 2466,
      "漫": 2467,
      "潜": 2468,
      "潭": 2469,
      "澳": 2470,
      "激": 2471,
      "濟": 2472,
      "灌": 2473,
      "灣": 2474,
      "火": 2475,
      "灾": 2476,
      "点": 2477,
      "為": 2478,
      "烏": 2479,
      "热": 2480,
      "焚": 2481,
      "無": 2482,
      "焦": 2483,
      "然": 2484,
      "焼": 2485,
      "照": 2486,
      "煮": 2487,
      "煽": 2488,
      "熟": 2489,
      "熨": 2490,
      "熱": 2491,
      "燃": 2492,
      "燕": 2493,
      "爪": 2494,
      "爱": 2495,
      "爲": 2496,
      "父": 2497,
      "片": 2498,
      "版": 2499,
      "牌": 2500,
      "牙": 2501,
      "牛": 2502,
      "物": 2503,
      "牵": 2504,
      "特": 2505,
      "牽": 2506,
      "犯": 2507,
      "状": 2508,
      "狐": 2509,
      "狠": 2510,
      "独": 2511,
      "猎": 2512,
      "猛": 2513,
      "猪": 2514,
      "猫": 2515,
      "献": 2516,
      "猿": 2517,
      "獲": 2518,
      "獵": 2519,
      "獻": 2520,
      "率": 2521,
      "玉": 2522,
      "王": 2523,
      "玩": 2524,
      "环": 2525,
      "现": 2526,
      "玲": 2527,
      "玻": 2528,
      "珍": 2529,
      "珠": 2530,
      "班": 2531,
      "球": 2532,
      "理": 2533,
      "琉": 2534,
      "琢": 2535,
      "琮": 2536,
      "琴": 2537,
      "瑞": 2538,
      "璐": 2539,
      "環": 2540,
      "瓜": 2541,
      "瓦": 2542,
      "甘": 2543,
      "甜": 2544,
      "生": 2545,
      "産": 2546,
      "用": 2547,
      "田": 2548,
      "由": 2549,
      "甲": 2550,
      "申": 2551,
      "电": 2552,
      "甸": 2553,
      "町": 2554,
      "画": 2555,
      "界": 2556,
      "留": 2557,
      "略": 2558,
      "番": 2559,
      "異": 2560,
      "畳": 2561,
      "當": 2562,
      "畿": 2563,
      "疆": 2564,
      "疏": 2565,
      "疑": 2566,
      "疗": 2567,
      "疾": 2568,
      "病": 2569,
      "痛": 2570,
      "痴": 2571,
      "瘤": 2572,
      "登": 2573,
      "發": 2574,
      "白": 2575,
      "百": 2576,
      "的": 2577,
      "皇": 2578,
      "皞": 2579,
      "皮": 2580,
      "益": 2581,
      "盐": 2582,
      "监": 2583,
      "盖": 2584,
      "盘": 2585,
      "盟": 2586,
      "目": 2587,
      "直": 2588,
      "相": 2589,
      "省": 2590,
      "看": 2591,
      "県": 2592,
      "眞": 2593,
      "真": 2594,
      "眼": 2595,
      "着": 2596,
      "督": 2597,
      "瞎": 2598,
      "瞬": 2599,
      "知": 2600,
      "短": 2601,
      "石": 2602,
      "矿": 2603,
      "码": 2604,
      "研": 2605,
      "破": 2606,
      "础": 2607,
      "硢": 2608,
      "硬": 2609,
      "确": 2610,
      "碁": 2611,
      "碍": 2612,
      "碳": 2613,
      "磁": 2614,
      "磷": 2615,
      "示": 2616,
      "礼": 2617,
      "社": 2618,
      "祖": 2619,
      "祝": 2620,
      "神": 2621,
      "票": 2622,
      "祭": 2623,
      "祸": 2624,
      "祿": 2625,
      "禁": 2626,
      "禄": 2627,
      "福": 2628,
      "离": 2629,
      "禽": 2630,
      "秀": 2631,
      "私": 2632,
      "秉": 2633,
      "秋": 2634,
      "种": 2635,
      "科": 2636,
      "秘": 2637,
      "租": 2638,
      "积": 2639,
      "称": 2640,
      "移": 2641,
      "稀": 2642,
      "稅": 2643,
      "程": 2644,
      "税": 2645,
      "種": 2646,
      "稲": 2647,
      "稳": 2648,
      "稻": 2649,
      "稿": 2650,
      "穆": 2651,
      "穴": 2652,
      "究": 2653,
      "穷": 2654,
      "空": 2655,
      "穿": 2656,
      "突": 2657,
      "窗": 2658,
      "窪": 2659,
      "窯": 2660,
      "立": 2661,
      "站": 2662,
      "章": 2663,
      "童": 2664,
      "端": 2665,
      "竹": 2666,
      "笑": 2667,
      "笔": 2668,
      "符": 2669,
      "第": 2670,
      "等": 2671,
      "筑": 2672,
      "答": 2673,
      "策": 2674,
      "签": 2675,
      "简": 2676,
      "箍": 2677,
      "算": 2678,
      "管": 2679,
      "箭": 2680,
      "箱": 2681,
      "節": 2682,
      "篆": 2683,
      "簡": 2684,
      "簽": 2685,
      "籍": 2686,
      "籠": 2687,
      "米": 2688,
      "类": 2689,
      "粉": 2690,
      "粥": 2691,
      "粮": 2692,
      "精": 2693,
      "糖": 2694,
      "系": 2695,
      "紀": 2696,
      "約": 2697,
      "純": 2698,
      "紗": 2699,
      "紙": 2700,
      "素": 2701,
      "索": 2702,
      "紧": 2703,
      "細": 2704,
      "紹": 2705,
      "終": 2706,
      "組": 2707,
      "経": 2708,
      "絞": 2709,
      "絡": 2710,
      "給": 2711,
      "絵": 2712,
      "継": 2713,
      "網": 2714,
      "綴": 2715,
      "線": 2716,
      "編": 2717,
      "縄": 2718,
      "縣": 2719,
      "縮": 2720,
      "績": 2721,
      "繁": 2722,
      "约": 2723,
      "级": 2724,
      "纪": 2725,
      "纱": 2726,
      "纲": 2727,
      "纳": 2728,
      "纷": 2729,
      "纸": 2730,
      "纽": 2731,
      "线": 2732,
      "练": 2733,
      "组": 2734,
      "细": 2735,
      "织": 2736,
      "终": 2737,
      "绍": 2738,
      "经": 2739,
      "结": 2740,
      "给": 2741,
      "络": 2742,
      "绞": 2743,
      "统": 2744,
      "继": 2745,
      "绩": 2746,
      "绪": 2747,
      "续": 2748,
      "绰": 2749,
      "维": 2750,
      "综": 2751,
      "绿": 2752,
      "缅": 2753,
      "缆": 2754,
      "缓": 2755,
      "编": 2756,
      "缩": 2757,
      "缴": 2758,
      "缺": 2759,
      "网": 2760,
      "罗": 2761,
      "罪": 2762,
      "置": 2763,
      "署": 2764,
      "羅": 2765,
      "美": 2766,
      "群": 2767,
      "義": 2768,
      "翁": 2769,
      "習": 2770,
      "翰": 2771,
      "翴": 2772,
      "翻": 2773,
      "耀": 2774,
      "老": 2775,
      "考": 2776,
      "者": 2777,
      "而": 2778,
      "耕": 2779,
      "耳": 2780,
      "耶": 2781,
      "耽": 2782,
      "聊": 2783,
      "职": 2784,
      "联": 2785,
      "聖": 2786,
      "聘": 2787,
      "聚": 2788,
      "聞": 2789,
      "職": 2790,
      "聽": 2791,
      "聾": 2792,
      "肃": 2793,
      "肖": 2794,
      "股": 2795,
      "肥": 2796,
      "肯": 2797,
      "育": 2798,
      "胁": 2799,
      "背": 2800,
      "能": 2801,
      "脑": 2802,
      "脚": 2803,
      "脱": 2804,
      "腊": 2805,
      "腰": 2806,
      "腹": 2807,
      "臂": 2808,
      "臓": 2809,
      "自": 2810,
      "至": 2811,
      "致": 2812,
      "臺": 2813,
      "舉": 2814,
      "舍": 2815,
      "舞": 2816,
      "航": 2817,
      "舫": 2818,
      "般": 2819,
      "船": 2820,
      "艇": 2821,
      "良": 2822,
      "色": 2823,
      "艳": 2824,
      "艺": 2825,
      "艾": 2826,
      "节": 2827,
      "芋": 2828,
      "芬": 2829,
      "花": 2830,
      "苏": 2831,
      "若": 2832,
      "英": 2833,
      "茂": 2834,
      "范": 2835,
      "茅": 2836,
      "茧": 2837,
      "茨": 2838,
      "茵": 2839,
      "茶": 2840,
      "草": 2841,
      "荐": 2842,
      "荣": 2843,
      "荫": 2844,
      "药": 2845,
      "荷": 2846,
      "莫": 2847,
      "莱": 2848,
      "获": 2849,
      "莹": 2850,
      "莽": 2851,
      "菜": 2852,
      "菩": 2853,
      "華": 2854,
      "菲": 2855,
      "萄": 2856,
      "营": 2857,
      "萧": 2858,
      "萨": 2859,
      "落": 2860,
      "葉": 2861,
      "葡": 2862,
      "蒂": 2863,
      "蒋": 2864,
      "蒸": 2865,
      "蔓": 2866,
      "蔚": 2867,
      "蔵": 2868,
      "蔺": 2869,
      "蕴": 2870,
      "薩": 2871,
      "薪": 2872,
      "薬": 2873,
      "薯": 2874,
      "藏": 2875,
      "藤": 2876,
      "蘇": 2877,
      "虎": 2878,
      "虑": 2879,
      "虚": 2880,
      "虫": 2881,
      "虹": 2882,
      "蝦": 2883,
      "融": 2884,
      "螳": 2885,
      "血": 2886,
      "行": 2887,
      "術": 2888,
      "衣": 2889,
      "补": 2890,
      "表": 2891,
      "衫": 2892,
      "袋": 2893,
      "袍": 2894,
      "被": 2895,
      "袭": 2896,
      "裁": 2897,
      "装": 2898,
      "裏": 2899,
      "裔": 2900,
      "裕": 2901,
      "裩": 2902,
      "製": 2903,
      "西": 2904,
      "要": 2905,
      "覆": 2906,
      "覇": 2907,
      "見": 2908,
      "視": 2909,
      "覧": 2910,
      "親": 2911,
      "觀": 2912,
      "见": 2913,
      "观": 2914,
      "规": 2915,
      "视": 2916,
      "览": 2917,
      "角": 2918,
      "解": 2919,
      "触": 2920,
      "言": 2921,
      "計": 2922,
      "訊": 2923,
      "記": 2924,
      "訪": 2925,
      "設": 2926,
      "許": 2927,
      "診": 2928,
      "証": 2929,
      "評": 2930,
      "試": 2931,
      "詩": 2932,
      "詰": 2933,
      "話": 2934,
      "認": 2935,
      "誕": 2936,
      "語": 2937,
      "誠": 2938,
      "請": 2939,
      "論": 2940,
      "諸": 2941,
      "證": 2942,
      "警": 2943,
      "議": 2944,
      "護": 2945,
      "计": 2946,
      "订": 2947,
      "认": 2948,
      "讨": 2949,
      "让": 2950,
      "训": 2951,
      "议": 2952,
      "讯": 2953,
      "记": 2954,
      "许": 2955,
      "论": 2956,
      "讼": 2957,
      "设": 2958,
      "访": 2959,
      "证": 2960,
      "评": 2961,
      "识": 2962,
      "诉": 2963,
      "诊": 2964,
      "译": 2965,
      "试": 2966,
      "诗": 2967,
      "诘": 2968,
      "话": 2969,
      "诠": 2970,
      "询": 2971,
      "该": 2972,
      "语": 2973,
      "说": 2974,
      "请": 2975,
      "诺": 2976,
      "调": 2977,
      "谅": 2978,
      "谈": 2979,
      "谐": 2980,
      "谷": 2981,
      "豆": 2982,
      "象": 2983,
      "豪": 2984,
      "豫": 2985,
      "豱": 2986,
      "豸": 2987,
      "負": 2988,
      "財": 2989,
      "貢": 2990,
      "責": 2991,
      "貰": 2992,
      "貸": 2993,
      "費": 2994,
      "貿": 2995,
      "賃": 2996,
      "資": 2997,
      "賑": 2998,
      "賢": 2999,
      "賬": 3000,
      "賴": 3001,
      "購": 3002,
      "贈": 3003,
      "贝": 3004,
      "贞": 3005,
      "负": 3006,
      "贡": 3007,
      "财": 3008,
      "责": 3009,
      "账": 3010,
      "货": 3011,
      "质": 3012,
      "贩": 3013,
      "贫": 3014,
      "购": 3015,
      "贱": 3016,
      "贳": 3017,
      "贴": 3018,
      "贷": 3019,
      "贸": 3020,
      "费": 3021,
      "资": 3022,
      "赈": 3023,
      "赌": 3024,
      "赔": 3025,
      "赖": 3026,
      "赛": 3027,
      "赞": 3028,
      "赠": 3029,
      "赤": 3030,
      "赵": 3031,
      "赶": 3032,
      "起": 3033,
      "超": 3034,
      "越": 3035,
      "趋": 3036,
      "足": 3037,
      "跃": 3038,
      "跋": 3039,
      "距": 3040,
      "跟": 3041,
      "跨": 3042,
      "路": 3043,
      "跳": 3044,
      "踪": 3045,
      "身": 3046,
      "車": 3047,
      "軍": 3048,
      "較": 3049,
      "載": 3050,
      "輿": 3051,
      "车": 3052,
      "轩": 3053,
      "转": 3054,
      "软": 3055,
      "轻": 3056,
      "载": 3057,
      "较": 3058,
      "辅": 3059,
      "辆": 3060,
      "辑": 3061,
      "输": 3062,
      "辞": 3063,
      "辦": 3064,
      "農": 3065,
      "边": 3066,
      "込": 3067,
      "达": 3068,
      "迁": 3069,
      "迅": 3070,
      "过": 3071,
      "迈": 3072,
      "迎": 3073,
      "运": 3074,
      "近": 3075,
      "还": 3076,
      "这": 3077,
      "进": 3078,
      "远": 3079,
      "违": 3080,
      "连": 3081,
      "迟": 3082,
      "迪": 3083,
      "迫": 3084,
      "追": 3085,
      "退": 3086,
      "送": 3087,
      "适": 3088,
      "逃": 3089,
      "选": 3090,
      "逊": 3091,
      "透": 3092,
      "逐": 3093,
      "递": 3094,
      "通": 3095,
      "速": 3096,
      "造": 3097,
      "逢": 3098,
      "連": 3099,
      "逸": 3100,
      "逻": 3101,
      "遇": 3102,
      "遊": 3103,
      "運": 3104,
      "過": 3105,
      "道": 3106,
      "達": 3107,
      "遗": 3108,
      "遠": 3109,
      "遣": 3110,
      "選": 3111,
      "避": 3112,
      "還": 3113,
      "邑": 3114,
      "那": 3115,
      "邦": 3116,
      "邮": 3117,
      "邱": 3118,
      "郎": 3119,
      "部": 3120,
      "郭": 3121,
      "郷": 3122,
      "都": 3123,
      "鄉": 3124,
      "酋": 3125,
      "配": 3126,
      "酒": 3127,
      "酸": 3128,
      "醋": 3129,
      "醍": 3130,
      "醐": 3131,
      "醫": 3132,
      "采": 3133,
      "释": 3134,
      "里": 3135,
      "重": 3136,
      "野": 3137,
      "量": 3138,
      "金": 3139,
      "釣": 3140,
      "鉄": 3141,
      "鉴": 3142,
      "銀": 3143,
      "銘": 3144,
      "錦": 3145,
      "鍵": 3146,
      "鏡": 3147,
      "鐵": 3148,
      "鑒": 3149,
      "针": 3150,
      "钓": 3151,
      "钦": 3152,
      "钧": 3153,
      "钱": 3154,
      "铭": 3155,
      "银": 3156,
      "链": 3157,
      "销": 3158,
      "锋": 3159,
      "锚": 3160,
      "锦": 3161,
      "键": 3162,
      "镜": 3163,
      "長": 3164,
      "长": 3165,
      "門": 3166,
      "開": 3167,
      "間": 3168,
      "閡": 3169,
      "関": 3170,
      "閣": 3171,
      "閥": 3172,
      "關": 3173,
      "门": 3174,
      "问": 3175,
      "间": 3176,
      "闻": 3177,
      "阅": 3178,
      "阜": 3179,
      "队": 3180,
      "阪": 3181,
      "防": 3182,
      "阳": 3183,
      "阴": 3184,
      "阻": 3185,
      "阿": 3186,
      "陀": 3187,
      "附": 3188,
      "际": 3189,
      "陆": 3190,
      "陈": 3191,
      "降": 3192,
      "限": 3193,
      "陕": 3194,
      "院": 3195,
      "陣": 3196,
      "除": 3197,
      "险": 3198,
      "陰": 3199,
      "陳": 3200,
      "陶": 3201,
      "陽": 3202,
      "隆": 3203,
      "随": 3204,
      "際": 3205,
      "障": 3206,
      "險": 3207,
      "难": 3208,
      "雁": 3209,
      "雄": 3210,
      "集": 3211,
      "雇": 3212,
      "雑": 3213,
      "雛": 3214,
      "難": 3215,
      "雨": 3216,
      "雪": 3217,
      "雲": 3218,
      "零": 3219,
      "雷": 3220,
      "電": 3221,
      "需": 3222,
      "霍": 3223,
      "青": 3224,
      "静": 3225,
      "非": 3226,
      "靠": 3227,
      "面": 3228,
      "革": 3229,
      "鞋": 3230,
      "韦": 3231,
      "韩": 3232,
      "音": 3233,
      "韶": 3234,
      "頂": 3235,
      "頃": 3236,
      "頭": 3237,
      "題": 3238,
      "類": 3239,
      "顮": 3240,
      "页": 3241,
      "顶": 3242,
      "顷": 3243,
      "项": 3244,
      "顺": 3245,
      "须": 3246,
      "顾": 3247,
      "顿": 3248,
      "预": 3249,
      "领": 3250,
      "频": 3251,
      "颖": 3252,
      "题": 3253,
      "额": 3254,
      "颠": 3255,
      "風": 3256,
      "风": 3257,
      "飛": 3258,
      "飞": 3259,
      "食": 3260,
      "飬": 3261,
      "飼": 3262,
      "飾": 3263,
      "餅": 3264,
      "養": 3265,
      "館": 3266,
      "饭": 3267,
      "饮": 3268,
      "饰": 3269,
      "饲": 3270,
      "馆": 3271,
      "首": 3272,
      "香": 3273,
      "馬": 3274,
      "駄": 3275,
      "駅": 3276,
      "駕": 3277,
      "駛": 3278,
      "騜": 3279,
      "马": 3280,
      "驶": 3281,
      "驻": 3282,
      "驾": 3283,
      "验": 3284,
      "骨": 3285,
      "高": 3286,
      "髻": 3287,
      "魁": 3288,
      "魂": 3289,
      "魚": 3290,
      "鱲": 3291,
      "鱼": 3292,
      "鲁": 3293,
      "鳥": 3294,
      "鵜": 3295,
      "鸣": 3296,
      "鹺": 3297,
      "鹿": 3298,
      "麦": 3299,
      "麻": 3300,
      "黄": 3301,
      "黎": 3302,
      "黑": 3303,
      "黒": 3304,
      "黛": 3305,
      "鼓": 3306,
      "齐": 3307,
      "龍": 3308,
      "龙": 3309,
      "ퟒ": 3310,
      "": 3311,
      "": 3312,
      "": 3313,
      "": 3314,
      "": 3315,
      "": 3316,
      "": 3317,
      "": 3318,
      "": 3319,
      "": 3320,
      "": 3321,
      "": 3322,
      "": 3323,
      "": 3324,
      "": 3325,
      "": 3326,
      "": 3327,
      "": 3328,
      "": 3329,
      "": 3330,
      "": 3331,
      "": 3332,
      "": 3333,
      "": 3334,
      "": 3335,
      "": 3336,
      "": 3337,
      "": 3338,
      "": 3339,
      "": 3340,
      "": 3341,
      "": 3342,
      "": 3343,
      "": 3344,
      "": 3345,
      "": 3346,
      "": 3347,
      "": 3348,
      "": 3349,
      "": 3350,
      "": 3351,
      "": 3352,
      "": 3353,
      "": 3354,
      "": 3355,
      "": 3356,
      "": 3357,
      "": 3358,
      "": 3359,
      "": 3360,
      "": 3361,
      "": 3362,
      "": 3363,
      "": 3364,
      "": 3365,
      "": 3366,
      "": 3367,
      "": 3368,
      "": 3369,
      "": 3370,
      "": 3371,
      "": 3372,
      "": 3373,
      "": 3374,
      "": 3375,
      "": 3376,
      "": 3377,
      "": 3378,
      "": 3379,
      "": 3380,
      "": 3381,
      "": 3382,
      "": 3383,
      "": 3384,
      "": 3385,
      "": 3386,
      "": 3387,
      "": 3388,
      "": 3389,
      "": 3390,
      "": 3391,
      "": 3392,
      "": 3393,
      "": 3394,
      "": 3395,
      "": 3396,
      "": 3397,
      "": 3398,
      "": 3399,
      "": 3400,
      "": 3401,
      "": 3402,
      "": 3403,
      "": 3404,
      "": 3405,
      "": 3406,
      "": 3407,
      "": 3408,
      "": 3409,
      "": 3410,
      "": 3411,
      "": 3412,
      "": 3413,
      "": 3414,
      "": 3415,
      "": 3416,
      "": 3417,
      "": 3418,
      "": 3419,
      "": 3420,
      "": 3421,
      "": 3422,
      "": 3423,
      "": 3424,
      "": 3425,
      "": 3426,
      "": 3427,
      "": 3428,
      "": 3429,
      "": 3430,
      "": 3431,
      "": 3432,
      "": 3433,
      "": 3434,
      "": 3435,
      "": 3436,
      "": 3437,
      "": 3438,
      "": 3439,
      "": 3440,
      "": 3441,
      "": 3442,
      "": 3443,
      "": 3444,
      "": 3445,
      "": 3446,
      "": 3447,
      "": 3448,
      "": 3449,
      "": 3450,
      "": 3451,
      "": 3452,
      "": 3453,
      "": 3454,
      "": 3455,
      "": 3456,
      "": 3457,
      "": 3458,
      "": 3459,
      "": 3460,
      "": 3461,
      "": 3462,
      "": 3463,
      "": 3464,
      "": 3465,
      "": 3466,
      "": 3467,
      "": 3468,
      "": 3469,
      "": 3470,
      "": 3471,
      "": 3472,
      "": 3473,
      "": 3474,
      "": 3475,
      "": 3476,
      "": 3477,
      "": 3478,
      "": 3479,
      "": 3480,
      "": 3481,
      "": 3482,
      "": 3483,
      "": 3484,
      "": 3485,
      "": 3486,
      "": 3487,
      "": 3488,
      "": 3489,
      "": 3490,
      "": 3491,
      "": 3492,
      "": 3493,
      "": 3494,
      "": 3495,
      "": 3496,
      "": 3497,
      "": 3498,
      "": 3499,
      "": 3500,
      "": 3501,
      "": 3502,
      "": 3503,
      "": 3504,
      "": 3505,
      "": 3506,
      "": 3507,
      "": 3508,
      "": 3509,
      "": 3510,
      "": 3511,
      "": 3512,
      "": 3513,
      "": 3514,
      "": 3515,
      "": 3516,
      "": 3517,
      "": 3518,
      "": 3519,
      "": 3520,
      "": 3521,
      "": 3522,
      "": 3523,
      "": 3524,
      "": 3525,
      "": 3526,
      "": 3527,
      "": 3528,
      "": 3529,
      "": 3530,
      "": 3531,
      "": 3532,
      "": 3533,
      "": 3534,
      "": 3535,
      "": 3536,
      "": 3537,
      "": 3538,
      "": 3539,
      "": 3540,
      "": 3541,
      "": 3542,
      "": 3543,
      "": 3544,
      "": 3545,
      "": 3546,
      "": 3547,
      "": 3548,
      "": 3549,
      "": 3550,
      "": 3551,
      "": 3552,
      "": 3553,
      "": 3554,
      "": 3555,
      "": 3556,
      "": 3557,
      "": 3558,
      "": 3559,
      "": 3560,
      "": 3561,
      "": 3562,
      "": 3563,
      "": 3564,
      "": 3565,
      "": 3566,
      "": 3567,
      "": 3568,
      "": 3569,
      "": 3570,
      "": 3571,
      "": 3572,
      "": 3573,
      "": 3574,
      "": 3575,
      "": 3576,
      "": 3577,
      "": 3578,
      "": 3579,
      "": 3580,
      "": 3581,
      "": 3582,
      "": 3583,
      "": 3584,
      "": 3585,
      "": 3586,
      "": 3587,
      "": 3588,
      "": 3589,
      "": 3590,
      "": 3591,
      "": 3592,
      "": 3593,
      "": 3594,
      "": 3595,
      "": 3596,
      "": 3597,
      "": 3598,
      "": 3599,
      "": 3600,
      "": 3601,
      "": 3602,
      "": 3603,
      "": 3604,
      "": 3605,
      "": 3606,
      "": 3607,
      "": 3608,
      "": 3609,
      "": 3610,
      "": 3611,
      "": 3612,
      "": 3613,
      "": 3614,
      "": 3615,
      "": 3616,
      "": 3617,
      "": 3618,
      "": 3619,
      "": 3620,
      "": 3621,
      "": 3622,
      "": 3623,
      "": 3624,
      "": 3625,
      "": 3626,
      "": 3627,
      "": 3628,
      "": 3629,
      "": 3630,
      "": 3631,
      "": 3632,
      "": 3633,
      "": 3634,
      "": 3635,
      "": 3636,
      "": 3637,
      "": 3638,
      "": 3639,
      "": 3640,
      "": 3641,
      "": 3642,
      "": 3643,
      "": 3644,
      "": 3645,
      "": 3646,
      "": 3647,
      "": 3648,
      "": 3649,
      "": 3650,
      "": 3651,
      "": 3652,
      "": 3653,
      "": 3654,
      "": 3655,
      "": 3656,
      "": 3657,
      "": 3658,
      "": 3659,
      "": 3660,
      "": 3661,
      "": 3662,
      "": 3663,
      "": 3664,
      "": 3665,
      "": 3666,
      "": 3667,
      "": 3668,
      "": 3669,
      "": 3670,
      "": 3671,
      "": 3672,
      "": 3673,
      "": 3674,
      "": 3675,
      "": 3676,
      "": 3677,
      "": 3678,
      "": 3679,
      "": 3680,
      "": 3681,
      "": 3682,
      "": 3683,
      "": 3684,
      "": 3685,
      "": 3686,
      "": 3687,
      "": 3688,
      "": 3689,
      "": 3690,
      "": 3691,
      "": 3692,
      "": 3693,
      "": 3694,
      "": 3695,
      "": 3696,
      "": 3697,
      "": 3698,
      "": 3699,
      "": 3700,
      "": 3701,
      "": 3702,
      "": 3703,
      "": 3704,
      "": 3705,
      "": 3706,
      "": 3707,
      "": 3708,
      "": 3709,
      "": 3710,
      "": 3711,
      "": 3712,
      "": 3713,
      "": 3714,
      "": 3715,
      "": 3716,
      "": 3717,
      "": 3718,
      "": 3719,
      "": 3720,
      "ﬀ": 3721,
      "ﬁ": 3722,
      "ﬂ": 3723,
      "ﬃ": 3724,
      "ﬄ": 3725,
      "ﭧ": 3726,
      "ﭩ": 3727,
      "ﭼ": 3728,
      "ﮉ": 3729,
      "ﮍ": 3730,
      "ﮐ": 3731,
      "ﮑ": 3732,
      "ﮦ": 3733,
      "ﮨ": 3734,
      "ﮫ": 3735,
      "ﮯ": 3736,
      "ﯼ": 3737,
      "ﯽ": 3738,
      "ﯾ": 3739,
      "ﯿ": 3740,
      "ﰐ": 3741,
      "ﰲ": 3742,
      "ﱂ": 3743,
      "ﱃ": 3744,
      "ﱄ": 3745,
      "ﱐ": 3746,
      "ﱘ": 3747,
      "ﱠ": 3748,
      "ﱢ": 3749,
      "ﱪ": 3750,
      "ﱯ": 3751,
      "ﱰ": 3752,
      "ﱴ": 3753,
      "ﱵ": 3754,
      "ﲎ": 3755,
      "ﲑ": 3756,
      "ﲔ": 3757,
      "ﲜ": 3758,
      "ﲞ": 3759,
      "ﲟ": 3760,
      "ﲡ": 3761,
      "ﲢ": 3762,
      "ﲣ": 3763,
      "ﲤ": 3764,
      "ﲨ": 3765,
      "ﲬ": 3766,
      "ﲰ": 3767,
      "ﳉ": 3768,
      "ﳊ": 3769,
      "ﳋ": 3770,
      "ﳌ": 3771,
      "ﳍ": 3772,
      "ﳎ": 3773,
      "ﳏ": 3774,
      "ﳐ": 3775,
      "ﳑ": 3776,
      "ﳒ": 3777,
      "ﳓ": 3778,
      "ﳔ": 3779,
      "ﳕ": 3780,
      "ﳘ": 3781,
      "ﳚ": 3782,
      "ﳝ": 3783,
      "﴾": 3784,
      "﴿": 3785,
      "ﶈ": 3786,
      "﷓": 3787,
      "︰": 3788,
      "﹏": 3789,
      "﹑": 3790,
      "﹝": 3791,
      "﹞": 3792,
      "ﹰ": 3793,
      "ﹶ": 3794,
      "ﹸ": 3795,
      "ﹼ": 3796,
      "ﺀ": 3797,
      "ﺁ": 3798,
      "ﺂ": 3799,
      "ﺃ": 3800,
      "ﺄ": 3801,
      "ﺅ": 3802,
      "ﺆ": 3803,
      "ﺇ": 3804,
      "ﺈ": 3805,
      "ﺉ": 3806,
      "ﺊ": 3807,
      "ﺋ": 3808,
      "ﺌ": 3809,
      "ﺍ": 3810,
      "ﺎ": 3811,
      "ﺏ": 3812,
      "ﺐ": 3813,
      "ﺑ": 3814,
      "ﺒ": 3815,
      "ﺓ": 3816,
      "ﺔ": 3817,
      "ﺕ": 3818,
      "ﺖ": 3819,
      "ﺗ": 3820,
      "ﺘ": 3821,
      "ﺙ": 3822,
      "ﺚ": 3823,
      "ﺛ": 3824,
      "ﺜ": 3825,
      "ﺝ": 3826,
      "ﺞ": 3827,
      "ﺟ": 3828,
      "ﺠ": 3829,
      "ﺡ": 3830,
      "ﺢ": 3831,
      "ﺣ": 3832,
      "ﺤ": 3833,
      "ﺦ": 3834,
      "ﺧ": 3835,
      "ﺨ": 3836,
      "ﺩ": 3837,
      "ﺪ": 3838,
      "ﺫ": 3839,
      "ﺬ": 3840,
      "ﺭ": 3841,
      "ﺮ": 3842,
      "ﺯ": 3843,
      "ﺰ": 3844,
      "ﺱ": 3845,
      "ﺲ": 3846,
      "ﺳ": 3847,
      "ﺴ": 3848,
      "ﺵ": 3849,
      "ﺶ": 3850,
      "ﺷ": 3851,
      "ﺸ": 3852,
      "ﺹ": 3853,
      "ﺺ": 3854,
      "ﺻ": 3855,
      "ﺼ": 3856,
      "ﺽ": 3857,
      "ﺾ": 3858,
      "ﺿ": 3859,
      "ﻀ": 3860,
      "ﻁ": 3861,
      "ﻂ": 3862,
      "ﻃ": 3863,
      "ﻄ": 3864,
      "ﻅ": 3865,
      "ﻆ": 3866,
      "ﻇ": 3867,
      "ﻈ": 3868,
      "ﻉ": 3869,
      "ﻊ": 3870,
      "ﻋ": 3871,
      "ﻌ": 3872,
      "ﻍ": 3873,
      "ﻎ": 3874,
      "ﻏ": 3875,
      "ﻐ": 3876,
      "ﻑ": 3877,
      "ﻒ": 3878,
      "ﻓ": 3879,
      "ﻔ": 3880,
      "ﻕ": 3881,
      "ﻖ": 3882,
      "ﻗ": 3883,
      "ﻘ": 3884,
      "ﻙ": 3885,
      "ﻚ": 3886,
      "ﻛ": 3887,
      "ﻜ": 3888,
      "ﻝ": 3889,
      "ﻞ": 3890,
      "ﻟ": 3891,
      "ﻠ": 3892,
      "ﻡ": 3893,
      "ﻢ": 3894,
      "ﻣ": 3895,
      "ﻤ": 3896,
      "ﻥ": 3897,
      "ﻦ": 3898,
      "ﻧ": 3899,
      "ﻨ": 3900,
      "ﻩ": 3901,
      "ﻪ": 3902,
      "ﻫ": 3903,
      "ﻬ": 3904,
      "ﻭ": 3905,
      "ﻮ": 3906,
      "ﻯ": 3907,
      "ﻰ": 3908,
      "ﻱ": 3909,
      "ﻲ": 3910,
      "ﻳ": 3911,
      "ﻴ": 3912,
      "ﻵ": 3913,
      "ﻶ": 3914,
      "ﻷ": 3915,
      "ﻸ": 3916,
      "ﻹ": 3917,
      "ﻺ": 3918,
      "ﻻ": 3919,
      "ﻼ": 3920,
      "﻿": 3921,
      "！": 3922,
      "＂": 3923,
      "％": 3924,
      "＆": 3925,
      "（": 3926,
      "）": 3927,
      "＊": 3928,
      "，": 3929,
      "－": 3930,
      "．": 3931,
      "０": 3932,
      "１": 3933,
      "２": 3934,
      "４": 3935,
      "６": 3936,
      "：": 3937,
      "；": 3938,
      "＜": 3939,
      "＝": 3940,
      "＞": 3941,
      "？": 3942,
      "＠": 3943,
      "Ａ": 3944,
      "Ｎ": 3945,
      "Ｐ": 3946,
      "Ｓ": 3947,
      "Ｖ": 3948,
      "［": 3949,
      "］": 3950,
      "＾": 3951,
      "ｂ": 3952,
      "ｄ": 3953,
      "ｅ": 3954,
      "ｈ": 3955,
      "ｌ": 3956,
      "ｏ": 3957,
      "ｓ": 3958,
      "ｕ": 3959,
      "～": 3960,
      "｢": 3961,
      "｣": 3962,
      "､": 3963,
      "ｰ": 3964,
      "ｷ": 3965,
      "ﾔ": 3966,
      "ﾩ": 3967,
      "￡": 3968,
      "￥": 3969,
      "￭": 3970,
      "￼": 3971,
      "�": 3972,
      "𐌰": 3973,
      "𐌴": 3974,
      "𐌸": 3975,
      "𐌼": 3976,
      "𐌽": 3977,
      "𐍃": 3978,
      "𐍉": 3979,
      "𠄲": 3980,
      "𣿿": 3981,
      "񣬰": 3982,
      "񼰺": 3983,
      "󻯣": 3984,
      "##a": 3985,
      "##c": 3986,
      "##h": 3987,
      "##i": 3988,
      "##l": 3989,
      "##m": 3990,
      "##p": 3991,
      "##t": 3992,
      "##u": 3993,
      "##o": 3994,
      "##k": 3995,
      "##e": 3996,
      "##x": 3997,
      "##y": 3998,
      "##s": 3999,
      "##r": 4000,
      "##z": 4001,
      "##n": 4002,
      "##C": 4003,
      "##L": 4004,
      "##O": 4005,
      "##d": 4006,
      "##V": 4007,
      "##6": 4008,
      "##0": 4009,
      "##9": 4010,
      "##8": 4011,
      "##5": 4012,
      "##7": 4013,
      "##w": 4014,
      "##K": 4015,
      "##I": 4016,
      "##T": 4017,
      "##S": 4018,
      "##A": 4019,
      "##3": 4020,
      "##1": 4021,
      "##4": 4022,
      "##B": 4023,
      "##D": 4024,
      "##ɛ": 4025,
      "##R": 4026,
      "##f": 4027,
      "##j": 4028,
      "##E": 4029,
      "##M": 4030,
      "##N": 4031,
      "##2": 4032,
      "##b": 4033,
      "##g": 4034,
      "##H": 4035,
      "##P": 4036,
      "##F": 4037,
      "##J": 4038,
      "##Q": 4039,
      "##U": 4040,
      "##Z": 4041,
      "##ل": 4042,
      "##م": 4043,
      "##ت": 4044,
      "##ك": 4045,
      "##ا": 4046,
      "##v": 4047,
      "##เ": 4048,
      "##ส": 4049,
      "##า": 4050,
      "##н": 4051,
      "##е": 4052,
      "##п": 4053,
      "##р": 4054,
      "##о": 4055,
      "##т": 4056,
      "##в": 4057,
      "##с": 4058,
      "##к": 4059,
      "##W": 4060,
      "##q": 4061,
      "##ﺎ": 4062,
      "##ﻨ": 4063,
      "##ﻴ": 4064,
      "##ı": 4065,
      "##ʼ": 4066,
      "##Y": 4067,
      "##X": 4068,
      "##ы": 4069,
      "##а": 4070,
      "##и": 4071,
      "##员": 4072,
      "##额": 4073,
      "##和": 4074,
      "##各": 4075,
      "##种": 4076,
      "##非": 4077,
      "##费": 4078,
      "##用": 4079,
      "##G": 4080,
      "##ﳌ": 4081,
      "##ﺨ": 4082,
      "##ـ": 4083,
      "##ﺪ": 4084,
      "##ر": 4085,
      "##Þ": 4086,
      "##罗": 4087,
      "##斯": 4088,
      "##联": 4089,
      "##邦": 4090,
      "##ж": 4091,
      "##Г": 4092,
      "##ґ": 4093,
      "##-": 4094,
      "##ł": 4095,
      "##ß": 4096,
      "##ﬁ": 4097,
      "##务": 4098,
      "##管": 4099,
      "##理": 4100,
      "##л": 4101,
      "##ь": 4102,
      "##я": 4103,
      "##书": 4104,
      "##长": 4105,
      "##关": 4106,
      "##于": 4107,
      "##区": 4108,
      "##域": 4109,
      "##合": 4110,
      "##作": 4111,
      "##的": 4112,
      "##报": 4113,
      "##告": 4114,
      "##中": 4115,
      "##载": 4116,
      "##列": 4117,
      "##项": 4118,
      "##建": 4119,
      "##议": 4120,
      "##ю": 4121,
      "##б": 4122,
      "##м": 4123,
      "##œ": 4124,
      "##Æ": 4125,
      "##ˆ": 4126,
      "##.": 4127,
      "##ч": 4128,
      "##ª": 4129,
      "##µ": 4130,
      "##Ø": 4131,
      "##æ": 4132,
      "##ο": 4133,
      "##σ": 4134,
      "##η": 4135,
      "##λ": 4136,
      "##ε": 4137,
      "##ι": 4138,
      "##α": 4139,
      "##ς": 4140,
      "##س": 4141,
      "##ي": 4142,
      "##د": 4143,
      "##τ": 4144,
      "##δ": 4145,
      "##γ": 4146,
      "##ρ": 4147,
      "##φ": 4148,
      "##ц": 4149,
      "##º": 4150,
      "##щ": 4151,
      "##学": 4152,
      "##可": 4153,
      "##以": 4154,
      "##极": 4155,
      "##大": 4156,
      "##地": 4157,
      "##有": 4158,
      "##利": 4159,
      "##全": 4160,
      "##球": 4161,
      "##食": 4162,
      "##品": 4163,
      "##安": 4164,
      "##ﬀ": 4165,
      "##委": 4166,
      "##会": 4167,
      "##编": 4168,
      "##写": 4169,
      "##色": 4170,
      "##占": 4171,
      "##领": 4172,
      "##对": 4173,
      "##包": 4174,
      "##括": 4175,
      "##耶": 4176,
      "##路": 4177,
      "##撒": 4178,
      "##冷": 4179,
      "##在": 4180,
      "##内": 4181,
      "##被": 4182,
      "##巴": 4183,
      "##勒": 4184,
      "##坦": 4185,
      "##土": 4186,
      "##Ð": 4187,
      "##ﻋ": 4188,
      "##ﺩ": 4189,
      "##ﺓ": 4190,
      "##ν": 4191,
      "##у": 4192,
      "##ъ": 4193,
      "##г": 4194,
      "##д": 4195,
      "##ᐅ": 4196,
      "##ᓵ": 4197,
      "##ᓕ": 4198,
      "##ᓂ": 4199,
      "##ᖅ": 4200,
      "##ᓴ": 4201,
      "##ᔪ": 4202,
      "##ᓐ": 4203,
      "##ᓇ": 4204,
      "##ᕐ": 4205,
      "##ᐊ": 4206,
      "##ᑕ": 4207,
      "##ᕗ": 4208,
      "##ᑦ": 4209,
      "##Œ": 4210,
      "##ш": 4211,
      "##ᑐ": 4212,
      "##ᓯ": 4213,
      "##ᔾ": 4214,
      "##ᑎ": 4215,
      "##ᒃ": 4216,
      "##ø": 4217,
      "##ȣ": 4218,
      "##υ": 4219,
      "##μ": 4220,
      "##ƒ": 4221,
      "##ð": 4222,
      "##ﳍ": 4223,
      "##ﺳ": 4224,
      "##ﺔ": 4225,
      "##з": 4226,
      "##拿": 4227,
      "##退": 4228,
      "##休": 4229,
      "##金": 4230,
      "##计": 4231,
      "##划": 4232,
      "##Θ": 4233,
      "##х": 4234,
      "##β": 4235,
      "##ω": 4236,
      "##ζ": 4237,
      "##ج": 4238,
      "##و": 4239,
      "##ﬂ": 4240,
      "##ј": 4241,
      "##ﺍ": 4242,
      "##ﻷ": 4243,
      "##ﺒ": 4244,
      "##ﺤ": 4245,
      "##ﺙ": 4246,
      "##θ": 4247,
      "##ᓱ": 4248,
      "##ᒐ": 4249,
      "##ᕆ": 4250,
      "##ᔭ": 4251,
      "##ᓄ": 4252,
      "##不": 4253,
      "##发": 4254,
      "##达": 4255,
      "##国": 4256,
      "##家": 4257,
      "##痴": 4258,
      "##态": 4259,
      "##ﻟ": 4260,
      "##ﻤ": 4261,
      "##ﺼ": 4262,
      "##ﺭ": 4263,
      "##ﻑ": 4264,
      "##ʔ": 4265,
      "##ﻔ": 4266,
      "##þ": 4267,
      "##Φ": 4268,
      "##ش": 4269,
      "##ф": 4270,
      "##ﺛ": 4271,
      "##ﺴ": 4272,
      "##ﻜ": 4273,
      "##ﻦ": 4274,
      "##κ": 4275,
      "##知": 4276,
      "##识": 4277,
      "##产": 4278,
      "##权": 4279,
      "##问": 4280,
      "##题": 4281,
      "##Е": 4282,
      "##ξ": 4283,
      "##מ": 4284,
      "##ש": 4285,
      "##נ": 4286,
      "##ה": 4287,
      "##ﻥ": 4288,
      "##ن": 4289,
      "##ة": 4290,
      "##ﻪ": 4291,
      "##ง": 4292,
      "##ป": 4293,
      "##ด": 4294,
      "##จ": 4295,
      "##ะ": 4296,
      "##ห": 4297,
      "##ม": 4298,
      "##อ": 4299,
      "##น": 4300,
      "##ช": 4301,
      "##ذ": 4302,
      "##是": 4303,
      "##我": 4304,
      "##这": 4305,
      "##次": 4306,
      "##捷": 4307,
      "##克": 4308,
      "##ﻭ": 4309,
      "##ﺹ": 4310,
      "##ʹ": 4311,
      "##洲": 4312,
      "##业": 4313,
      "##雇": 4314,
      "##主": 4315,
      "##盟": 4316,
      "##χ": 4317,
      "##ᓗ": 4318,
      "##ᒻ": 4319,
      "##ᒪ": 4320,
      "##ᐃ": 4321,
      "##ᒥ": 4322,
      "##ﻣ": 4323,
      "##ﺆ": 4324,
      "##ﺷ": 4325,
      "##ﺮ": 4326,
      "##ﻧ": 4327,
      "##ﻘ": 4328,
      "##ﻞ": 4329,
      "##ﻀ": 4330,
      "##ﻠ": 4331,
      "##证": 4332,
      "##万": 4333,
      "##宫": 4334,
      "##楼": 4335,
      "##及": 4336,
      "##讨": 4337,
      "##论": 4338,
      "##了": 4339,
      "##上": 4340,
      "##工": 4341,
      "##展": 4342,
      "##组": 4343,
      "##织": 4344,
      "##ﺡ": 4345,
      "##Α": 4346,
      "##Ν": 4347,
      "##Δ": 4348,
      "##年": 4349,
      "##保": 4350,
      "##障": 4351,
      "##身": 4352,
      "##份": 4353,
      "##證": 4354,
      "##生": 4355,
      "##ᑭ": 4356,
      "##ᐧ": 4357,
      "##ᒋ": 4358,
      "##ᐱ": 4359,
      "##ᐦ": 4360,
      "##ᑫ": 4361,
      "##ᑯ": 4362,
      "##ᐨ": 4363,
      "##Џ": 4364,
      "##С": 4365,
      "##Ђ": 4366,
      "##Р": 4367,
      "##М": 4368,
      "##ث": 4369,
      "##ب": 4370,
      "##ᑲ": 4371,
      "##ᖃ": 4372,
      "##ﺋ": 4373,
      "##ﺈ": 4374,
      "##ﺸ": 4375,
      "##ﻌ": 4376,
      "##ه": 4377,
      "##٢": 4378,
      "##١": 4379,
      "##Σ": 4380,
      "##đ": 4381,
      "##З": 4382,
      "##А": 4383,
      "##Б": 4384,
      "##Л": 4385,
      "##ﻐ": 4386,
      "##ﲑ": 4387,
      "##פ": 4388,
      "##ᅳ": 4389,
      "##ᆼ": 4390,
      "##ᄆ": 4391,
      "##ᅧ": 4392,
      "##ᄉ": 4393,
      "##ᅥ": 4394,
      "##В": 4395,
      "##ᐸ": 4396,
      "##ᐠ": 4397,
      "##π": 4398,
      "##ת": 4399,
      "##ו": 4400,
      "##ך": 4401,
      "##ﺘ": 4402,
      "##ﻛ": 4403,
      "##ح": 4404,
      "##剑": 4405,
      "##ϵ": 4406,
      "##高": 4407,
      "##人": 4408,
      "##民": 4409,
      "##法": 4410,
      "##院": 4411,
      "##ف": 4412,
      "##ħ": 4413,
      "##ψ": 4414,
      "##К": 4415,
      "##ɔ": 4416,
      "##向": 4417,
      "##所": 4418,
      "##设": 4419,
      "##日": 4420,
      "##瓦": 4421,
      "##专": 4422,
      "##门": 4423,
      "##机": 4424,
      "##构": 4425,
      "##提": 4426,
      "##供": 4427,
      "##外": 4428,
      "##交": 4429,
      "##邮": 4430,
      "##袋": 4431,
      "##服": 4432,
      "##方": 4433,
      "##共": 4434,
      "##同": 4435,
      "##市": 4436,
      "##场": 4437,
      "##ﻃ": 4438,
      "##ﻖ": 4439,
      "##ᅪ": 4440,
      "##ᆫ": 4441,
      "##ᓅ": 4442,
      "##ᓪ": 4443,
      "##پ": 4444,
      "##ی": 4445,
      "##威": 4446,
      "##尔": 4447,
      "##逊": 4448,
      "##خ": 4449,
      "##ط": 4450,
      "##ﺯ": 4451,
      "##ร": 4452,
      "##ษ": 4453,
      "##ท": 4454,
      "##ﻮ": 4455,
      "##ﺑ": 4456,
      "##ﻰ": 4457,
      "##ض": 4458,
      "##ع": 4459,
      "##赤": 4460,
      "##岭": 4461,
      "##Ł": 4462,
      "##成": 4463,
      "##审": 4464,
      "##并": 4465,
      "##批": 4466,
      "##准": 4467,
      "##本": 4468,
      "##文": 4469,
      "##件": 4470,
      "##容": 4471,
      "##כ": 4472,
      "##ל": 4473,
      "##ﻻ": 4474,
      "##ص": 4475,
      "##ﻈ": 4476,
      "##ᕕ": 4477,
      "##価": 4478,
      "##値": 4479,
      "##と": 4480,
      "##原": 4481,
      "##則": 4482,
      "##こ": 4483,
      "##そ": 4484,
      "##か": 4485,
      "##円": 4486,
      "##て": 4487,
      "##し": 4488,
      "##た": 4489,
      "##٩": 4490,
      "##٣": 4491,
      "##刘": 4492,
      "##颖": 4493,
      "##ᕉ": 4494,
      "##ᖢ": 4495,
      "##他": 4496,
      "##付": 4497,
      "##款": 4498,
      "##ﻳ": 4499,
      "##ᅭ": 4500,
      "##ᄎ": 4501,
      "##י": 4502,
      "##ﲔ": 4503,
      "##И": 4504,
      "##ʺ": 4505,
      "##目": 4506,
      "##来": 4507,
      "##偿": 4508,
      "##ם": 4509,
      "##غ": 4510,
      "##海": 4511,
      "##ᓰ": 4512,
      "##ᕈ": 4513,
      "##ᕇ": 4514,
      "##ﺬ": 4515,
      "##ᔮ": 4516,
      "##ᕋ": 4517,
      "##ᓲ": 4518,
      "##ᓚ": 4519,
      "##Η": 4520,
      "##ᙵ": 4521,
      "##ء": 4522,
      "##і": 4523,
      "##ﬃ": 4524,
      "##吗": 4525,
      "##ﺌ": 4526,
      "##ᖕ": 4527,
      "##ᒧ": 4528,
      "##ᑉ": 4529,
      "##ﻬ": 4530,
      "##覇": 4531,
      "##子": 4532,
      "##律": 4533,
      "##集": 4534,
      "##ﺗ": 4535,
      "##Ћ": 4536,
      "##ᖁ": 4537,
      "##ق": 4538,
      "##ﻁ": 4539,
      "##ﻲ": 4540,
      "##龍": 4541,
      "##峒": 4542,
      "##ﺫ": 4543,
      "##ﺝ": 4544,
      "##消": 4545,
      "##除": 4546,
      "##进": 4547,
      "##出": 4548,
      "##东": 4549,
      "##限": 4550,
      "##制": 4551,
      "##う": 4552,
      "##は": 4553,
      "##い": 4554,
      "##ᔕ": 4555,
      "##ᖓ": 4556,
      "##ﺅ": 4557,
      "##ﺕ": 4558,
      "##ก": 4559,
      "##۳": 4560,
      "##У": 4561,
      "##Д": 4562,
      "##Щ": 4563,
      "##І": 4564,
      "##ﻓ": 4565,
      "##ᐳ": 4566,
      "##ˇ": 4567,
      "###": 4568,
      "##ᅵ": 4569,
      "##ᆸ": 4570,
      "##ᄌ": 4571,
      "##ᅡ": 4572,
      "##ᄀ": 4573,
      "##ᄋ": 4574,
      "##ƙ": 4575,
      "##較": 4576,
      "##想": 4577,
      "##找": 4578,
      "##死": 4579,
      "##尼": 4580,
      "##特": 4581,
      "##ﻹ": 4582,
      "##叙": 4583,
      "##亚": 4584,
      "##戈": 4585,
      "##兰": 4586,
      "##阿": 4587,
      "##拉": 4588,
      "##伯": 4589,
      "##居": 4590,
      "##ᕌ": 4591,
      "##ᆨ": 4592,
      "##ᅮ": 4593,
      "##ᆯ": 4594,
      "##ﺄ": 4595,
      "##紙": 4596,
      "##ใ": 4597,
      "##ไ": 4598,
      "##ว": 4599,
      "##余": 4600,
      "##晏": 4601,
      "##ค": 4602,
      "##ถ": 4603,
      "##ล": 4604,
      "##Π": 4605,
      "##シ": 4606,
      "##ネ": 4607,
      "##ス": 4608,
      "##マ": 4609,
      "##ン": 4610,
      "##祝": 4611,
      "##ᖏ": 4612,
      "##时": 4613,
      "##改": 4614,
      "##为": 4615,
      "##常": 4616,
      "##眼": 4617,
      "##鏡": 4618,
      "##西": 4619,
      "##О": 4620,
      "##ᒍ": 4621,
      "##ﻗ": 4622,
      "##ﻡ": 4623,
      "##玉": 4624,
      "##五": 4625,
      "##十": 4626,
      "##六": 4627,
      "##届": 4628,
      "##ר": 4629,
      "##א": 4630,
      "##Γ": 4631,
      "##ﺠ": 4632,
      "##永": 4633,
      "##康": 4634,
      "##要": 4635,
      "##求": 4636,
      "##严": 4637,
      "##打": 4638,
      "##境": 4639,
      "##敌": 4640,
      "##势": 4641,
      "##力": 4642,
      "##ﺻ": 4643,
      "##ס": 4644,
      "##ג": 4645,
      "##顶": 4646,
      "##リ": 4647,
      "##テ": 4648,
      "##ィ": 4649,
      "##ー": 4650,
      "##の": 4651,
      "##名": 4652,
      "##探": 4653,
      "##偵": 4654,
      "##ホ": 4655,
      "##ア": 4656,
      "##ロ": 4657,
      "##フ": 4658,
      "##ル": 4659,
      "##ɲ": 4660,
      "##Ε": 4661,
      "##Т": 4662,
      "##ﺧ": 4663,
      "##ى": 4664,
      "##ℓ": 4665,
      "##ѕ": 4666,
      "##衣": 4667,
      "##店": 4668,
      "##干": 4669,
      "##洗": 4670,
      "##手": 4671,
      "##持": 4672,
      "##式": 4673,
      "##熨": 4674,
      "##斗": 4675,
      "##Я": 4676,
      "##豆": 4677,
      "##稲": 4678,
      "##取": 4679,
      "##ﻕ": 4680,
      "##Ј": 4681,
      "##ᔨ": 4682,
      "##ๆ": 4683,
      "##บ": 4684,
      "##ᖔ": 4685,
      "##Њ": 4686,
      "##ﺖ": 4687,
      "##Ω": 4688,
      "##ﻼ": 4689,
      "##ﻩ": 4690,
      "##ﻸ": 4691,
      "##ﺟ": 4692,
      "##ﺏ": 4693,
      "##Ρ": 4694,
      "##吟": 4695,
      "##ﺰ": 4696,
      "##ክ": 4697,
      "##ቶ": 4698,
      "##በ": 4699,
      "##ር": 4700,
      "##ᅢ": 4701,
      "##۰": 4702,
      "##۹": 4703,
      "##婆": 4704,
      "##餅": 4705,
      "##ﻏ": 4706,
      "##њ": 4707,
      "##ژ": 4708,
      "##Ѕ": 4709,
      "##є": 4710,
      "##Ι": 4711,
      "##ᖂ": 4712,
      "##ᑖ": 4713,
      "##٨": 4714,
      "##٥": 4715,
      "##决": 4716,
      "##第": 4717,
      "##ᐁ": 4718,
      "##ᒡ": 4719,
      "##ᓈ": 4720,
      "##栄": 4721,
      "##起": 4722,
      "##Ψ": 4723,
      "##贸": 4724,
      "##易": 4725,
      "##与": 4726,
      "##ま": 4727,
      "##わ": 4728,
      "##り": 4729,
      "##っ": 4730,
      "##ﳒ": 4731,
      "##ز": 4732,
      "##质": 4733,
      "##量": 4734,
      "##饲": 4735,
      "##育": 4736,
      "##更": 4737,
      "##好": 4738,
      "##兽": 4739,
      "##医": 4740,
      "##让": 4741,
      "##世": 4742,
      "##界": 4743,
      "##平": 4744,
      "##均": 4745,
      "##牛": 4746,
      "##奶": 4747,
      "##增": 4748,
      "##加": 4749,
      "##一": 4750,
      "##倍": 4751,
      "##多": 4752,
      "##奸": 4753,
      "##Є": 4754,
      "##老": 4755,
      "##兵": 4756,
      "##事": 4757,
      "##部": 4758,
      "##健": 4759,
      "##卡": 4760,
      "##ᐡ": 4761,
      "##ק": 4762,
      "##ე": 4763,
      "##უ": 4764,
      "##ძ": 4765,
      "##ლ": 4766,
      "##ი": 4767,
      "##ა": 4768,
      "##ﻅ": 4769,
      "##ə": 4770,
      "##ﺇ": 4771,
      "##ظ": 4772,
      "##ﻄ": 4773,
      "##ᅩ": 4774,
      "##ח": 4775,
      "##ﺜ": 4776,
      "##弗": 4777,
      "##隆": 4778,
      "##ᄐ": 4779,
      "##ᅬ": 4780,
      "##Ԥ": 4781,
      "##音": 4782,
      "##カ": 4783,
      "##线": 4784,
      "##电": 4785,
      "##视": 4786,
      "##公": 4787,
      "##司": 4788,
      "##ナ": 4789,
      "##透": 4790,
      "##Κ": 4791,
      "##Ο": 4792,
      "##茅": 4793,
      "##Υ": 4794,
      "##Ξ": 4795,
      "##ラ": 4796,
      "##二": 4797,
      "##八": 4798,
      "##ᅲ": 4799,
      "##ᄅ": 4800,
      "##根": 4801,
      "##据": 4802,
      "##ɳ": 4803,
      "##義": 4804,
      "##ᖑ": 4805,
      "##ᐹ": 4806,
      "##ɓ": 4807,
      "##订": 4808,
      "##涉": 4809,
      "##案": 4810,
      "##预": 4811,
      "##算": 4812,
      "##声": 4813,
      "##明": 4814,
      "##草": 4815,
      "##稿": 4816,
      "##总": 4817,
      "##经": 4818,
      "##济": 4819,
      "##社": 4820,
      "##ᅯ": 4821,
      "##э": 4822,
      "##梨": 4823,
      "##甸": 4824,
      "##三": 4825,
      "##越": 4826,
      "##ﻙ": 4827,
      "##ע": 4828,
      "##ב": 4829,
      "##ﻫ": 4830,
      "##程": 4831,
      "##`": 4832,
      "##ʒ": 4833,
      "##版": 4834,
      "##属": 4835,
      "##お": 4836,
      "##よ": 4837,
      "##ひ": 4838,
      "##製": 4839,
      "##ﺐ": 4840,
      "##科": 4841,
      "##步": 4842,
      "##自": 4843,
      "##由": 4844,
      "##洪": 4845,
      "##水": 4846,
      "##猛": 4847,
      "##伦": 4848,
      "##田": 4849,
      "##心": 4850,
      "##ﻉ": 4851,
      "##寸": 4852,
      "##先": 4853,
      "##令": 4854,
      "##通": 4855,
      "##过": 4856,
      "##该": 4857,
      "##之": 4858,
      "##前": 4859,
      "##Н": 4860,
      "##ћ": 4861,
      "##ﳉ": 4862,
      "##ﳝ": 4863,
      "##ﺣ": 4864,
      "##举": 4865,
      "##行": 4866,
      "##记": 4867,
      "##录": 4868,
      "##表": 4869,
      "##線": 4870,
      "##電": 4871,
      "##視": 4872,
      "##后": 4873,
      "##已": 4874,
      "##将": 4875,
      "##登": 4876,
      "##ᆷ": 4877,
      "##さ": 4878,
      "##く": 4879,
      "##も": 4880,
      "##Љ": 4881,
      "##獵": 4882,
      "##ک": 4883,
      "##ɜ": 4884,
      "##般": 4885,
      "##临": 4886,
      "##助": 4887,
      "##代": 4888,
      "##替": 4889,
      "##请": 4890,
      "##假": 4891,
      "##或": 4892,
      "##期": 4893,
      "##病": 4894,
      "##媒": 4895,
      "##体": 4896,
      "##Λ": 4897,
      "##租": 4898,
      "##约": 4899,
      "##ד": 4900,
      "##青": 4901,
      "##ﺢ": 4902,
      "##级": 4903,
      "##参": 4904,
      "##收": 4905,
      "##到": 4906,
      "##下": 4907,
      "##ᔅ": 4908,
      "##ᄒ": 4909,
      "##ﻒ": 4910,
      "##福": 4911,
      "##別": 4912,
      "##セ": 4913,
      "##ク": 4914,
      "##ョ": 4915,
      "##政": 4916,
      "##府": 4917,
      "##间": 4918,
      "##支": 4919,
      "##际": 4920,
      "##局": 4921,
      "##ﻊ": 4922,
      "##湄": 4923,
      "##河": 4924,
      "##角": 4925,
      "##茵": 4926,
      "##别": 4927,
      "##墅": 4928,
      "##其": 4929,
      "##附": 4930,
      "##筑": 4931,
      "##物": 4932,
      "##ต": 4933,
      "##规": 4934,
      "##定": 4935,
      "##П": 4936,
      "##豪": 4937,
      "##空": 4938,
      "##港": 4939,
      "##Х": 4940,
      "##歌": 4941,
      "##山": 4942,
      "##讯": 4943,
      "##Э": 4944,
      "##Ь": 4945,
      "##失": 4946,
      "##贫": 4947,
      "##穷": 4948,
      "##挑": 4949,
      "##战": 4950,
      "##ʌ": 4951,
      "##ﺿ": 4952,
      "##ט": 4953,
      "##Β": 4954,
      "##ᑑ": 4955,
      "##州": 4956,
      "##校": 4957,
      "##ᄃ": 4958,
      "##信": 4959,
      "##比": 4960,
      "##宁": 4961,
      "##サ": 4962,
      "##ﺦ": 4963,
      "##٠": 4964,
      "##ᄑ": 4965,
      "##ﻇ": 4966,
      "##戯": 4967,
      "##王": 4968,
      "##型": 4969,
      "##翻": 4970,
      "##修": 4971,
      "##商": 4972,
      "##月": 4973,
      "##丹": 4974,
      "##Μ": 4975,
      "##暂": 4976,
      "##话": 4977,
      "##换": 4978,
      "##台": 4979,
      "##维": 4980,
      "##重": 4981,
      "##県": 4982,
      "##書": 4983,
      "##Ч": 4984,
      "##标": 4985,
      "##观": 4986,
      "##分": 4987,
      "##类": 4988,
      "##城": 4989,
      "##京": 4990,
      "##Ы": 4991,
      "##Ш": 4992,
      "##&": 4993,
      "##ᐣ": 4994,
      "##٦": 4995,
      "##ᕙ": 4996,
      "##ผ": 4997,
      "##厅": 4998,
      "##致": 4999,
      "##按": 5000,
      "##照": 5001,
      "##٤": 5002,
      "##瓜": 5003,
      "##ﱰ": 5004,
      "##ᒎ": 5005,
      "##ᄂ": 5006,
      "##财": 5007,
      "##绍": 5008,
      "##ː": 5009,
      "##ﺞ": 5010,
      "##太": 5011,
      "##洋": 5012,
      "##状": 5013,
      "##况": 5014,
      "##概": 5015,
      "##览": 5016,
      "##摘": 5017,
      "##们": 5018,
      "##住": 5019,
      "##最": 5020,
      "##星": 5021,
      "##酒": 5022,
      "##息": 5023,
      "##技": 5024,
      "##术": 5025,
      "##ﻎ": 5026,
      "##ﺱ": 5027,
      "##影": 5028,
      "##响": 5029,
      "##ト": 5030,
      "##井": 5031,
      "##伸": 5032,
      "##広": 5033,
      "##Ц": 5034,
      "##悩": 5035,
      "##码": 5036,
      "##花": 5037,
      "##鲁": 5038,
      "##ᅱ": 5039,
      "##ᅦ": 5040,
      "##丁": 5041,
      "##美": 5042,
      "##迪": 5043,
      "##ﹰ": 5044,
      "##Τ": 5045,
      "##护": 5046,
      "##施": 5047,
      "##纸": 5048,
      "##担": 5049,
      "##楽": 5050,
      "##љ": 5051,
      "##ย": 5052,
      "##瞎": 5053,
      "##搞": 5054,
      "##計": 5055,
      "##劃": 5056,
      "##細": 5057,
      "##單": 5058,
      "##违": 5059,
      "##宪": 5060,
      "##查": 5061,
      "##ᕝ": 5062,
      "##Ⴞ": 5063,
      "##给": 5064,
      "##ᖦ": 5065,
      "##见": 5066,
      "##相": 5067,
      "##简": 5068,
      "##ﺽ": 5069,
      "##ﻢ": 5070,
      "##選": 5071,
      "##舉": 5072,
      "##姓": 5073,
      "##票": 5074,
      "##存": 5075,
      "##川": 5076,
      "##ጽ": 5077,
      "##ﱐ": 5078,
      "##酋": 5079,
      "##未": 5080,
      "##链": 5081,
      "##融": 5082,
      "##入": 5083,
      "##循": 5084,
      "##环": 5085,
      "##情": 5086,
      "##ﻯ": 5087,
      "##也": 5088,
      "##迅": 5089,
      "##速": 5090,
      "##转": 5091,
      "##变": 5092,
      "##能": 5093,
      "##活": 5094,
      "##条": 5095,
      "##ԁ": 5096,
      "##ן": 5097,
      "##没": 5098,
      "##移": 5099,
      "##Ґ": 5100,
      "##资": 5101,
      "##源": 5102,
      "##处": 5103,
      "##鼓": 5104,
      "##励": 5105,
      "##ᄄ": 5106,
      "##正": 5107,
      "##协": 5108,
      "##直": 5109,
      "##阪": 5110,
      "##口": 5111,
      "##Χ": 5112,
      "##ﳋ": 5113,
      "##頂": 5114,
      "##银": 5115,
      "##义": 5116,
      "##南": 5117,
      "##夫": 5118,
      "##马": 5119,
      "##顿": 5120,
      "##捐": 5121,
      "##ﲨ": 5122,
      "##漢": 5123,
      "##儀": 5124,
      "##望": 5125,
      "##ག": 5126,
      "##ニ": 5127,
      "##ウ": 5128,
      "##ァ": 5129,
      "##ᔑ": 5130,
      "##债": 5131,
      "##着": 5132,
      "##撤": 5133,
      "##销": 5134,
      "##购": 5135,
      "##如": 5136,
      "##ɗ": 5137,
      "##र": 5138,
      "##ำ": 5139,
      "##ᄈ": 5140,
      "##ვ": 5141,
      "##რ": 5142,
      "##დ": 5143,
      "##灣": 5144,
      "##化": 5145,
      "##石": 5146,
      "##矿": 5147,
      "##框": 5148,
      "##架": 5149,
      "##统": 5150,
      "##农": 5151,
      "##劳": 5152,
      "##动": 5153,
      "##军": 5154,
      "##چ": 5155,
      "##送": 5156,
      "##递": 5157,
      "##逢": 5158,
      "##瞬": 5159,
      "##間": 5160,
      "##Ф": 5161,
      "##援": 5162,
      "##ᐟ": 5163,
      "##里": 5164,
      "##მ": 5165,
      "##志": 5166,
      "##监": 5167,
      "##察": 5168,
      "##妻": 5169,
      "##此": 5170,
      "##卫": 5171,
      "##房": 5172,
      "##亿": 5173,
      "##摆": 5174,
      "##脱": 5175,
      "##困": 5176,
      "##使": 5177,
      "##储": 5178,
      "##备": 5179,
      "##ﺀ": 5180,
      "##ʀ": 5181,
      "##ˈ": 5182,
      "##ﻱ": 5183,
      "##图": 5184,
      "##片": 5185,
      "##缴": 5186,
      "##办": 5187,
      "##面": 5188,
      "##短": 5189,
      "##缺": 5190,
      "##站": 5191,
      "##数": 5192,
      "##系": 5193,
      "##ﶈ": 5194,
      "##陶": 5195,
      "##板": 5196,
      "##苏": 5197,
      "##些": 5198,
      "##紧": 5199,
      "##迫": 5200,
      "##妨": 5201,
      "##碍": 5202,
      "##焦": 5203,
      "##点": 5204,
      "##御": 5205,
      "##座": 5206,
      "##引": 5207,
      "##立": 5208,
      "##凄": 5209,
      "##ᑌ": 5210,
      "##需": 5211,
      "##每": 5212,
      "##天": 5213,
      "##都": 5214,
      "##得": 5215,
      "##层": 5216,
      "##访": 5217,
      "##谈": 5218,
      "##ﳘ": 5219,
      "##礼": 5220,
      "##元": 5221,
      "##野": 5222,
      "##武": 5223,
      "##俊": 5224,
      "##就": 5225,
      "##诊": 5226,
      "##縄": 5227,
      "##す": 5228,
      "##る": 5229,
      "##ᒦ": 5230,
      "##ᓘ": 5231,
      "##廉": 5232,
      "##光": 5233,
      "##แ": 5234,
      "##ﺾ": 5235,
      "##ო": 5236,
      "##ც": 5237,
      "##ᑏ": 5238,
      "##格": 5239,
      "##依": 5240,
      "##确": 5241,
      "##刑": 5242,
      "##ﺃ": 5243,
      "##执": 5244,
      "##秘": 5245,
      "##介": 5246,
      "##性": 5247,
      "##言": 5248,
      "##味": 5249,
      "##滑": 5250,
      "##雪": 5251,
      "##广": 5252,
      "##追": 5253,
      "##样": 5254,
      "##饮": 5255,
      "##ຽ": 5256,
      "##ງ": 5257,
      "##ຈ": 5258,
      "##ນ": 5259,
      "##ᐢ": 5260,
      "##近": 5261,
      "##七": 5262,
      "##号": 5263,
      "##峪": 5264,
      "##雄": 5265,
      "##馬": 5266,
      "##揃": 5267,
      "##ს": 5268,
      "##گ": 5269,
      "##投": 5270,
      "##解": 5271,
      "##释": 5272,
      "##首": 5273,
      "##席": 5274,
      "##选": 5275,
      "##官": 5276,
      "##认": 5277,
      "##畿": 5278,
      "##室": 5279,
      "##搬": 5280,
      "##迁": 5281,
      "##杂": 5282,
      "##ﱪ": 5283,
      "##ﳎ": 5284,
      "##番": 5285,
      "##叟": 5286,
      "##ﻂ": 5287,
      "##メ": 5288,
      "##黑": 5289,
      "##冰": 5290,
      "##岛": 5291,
      "##萨": 5292,
      "##教": 5293,
      "##際": 5294,
      "##ッ": 5295,
      "##它": 5296,
      "##传": 5297,
      "##袍": 5298,
      "##キ": 5299,
      "##ғ": 5300,
      "##ҙ": 5301,
      "##タ": 5302,
      "##塔": 5303,
      "##ซ": 5304,
      "##崎": 5305,
      "##ᓃ": 5306,
      "##完": 5307,
      "##只": 5308,
      "##Đ": 5309,
      "##純": 5310,
      "##寻": 5311,
      "##良": 5312,
      "##策": 5313,
      "##煮": 5314,
      "##詰": 5315,
      "##ﳊ": 5316,
      "##ﺺ": 5317,
      "##異": 5318,
      "##端": 5319,
      "##児": 5320,
      "##団": 5321,
      "##单": 5322,
      "##独": 5323,
      "##帐": 5324,
      "##ɵ": 5325,
      "##献": 5326,
      "##职": 5327,
      "##责": 5328,
      "##ͳ": 5329,
      "##切": 5330,
      "##腹": 5331,
      "##島": 5332,
      "##函": 5333,
      "##货": 5334,
      "##实": 5335,
      "##但": 5336,
      "##歩": 5337,
      "##約": 5338,
      "##套": 5339,
      "##れ": 5340,
      "##ɡ": 5341,
      "##ʲ": 5342,
      "##٧": 5343,
      "##托": 5344,
      "##签": 5345,
      "##舍": 5346,
      "##۴": 5347,
      "##藤": 5348,
      "##贝": 5349,
      "##戴": 5350,
      "##溯": 5351,
      "##善": 5352,
      "##略": 5353,
      "##研": 5354,
      "##究": 5355,
      "##净": 5356,
      "##减": 5357,
      "##少": 5358,
      "##機": 5359,
      "##場": 5360,
      "##茂": 5361,
      "##楠": 5362,
      "##Ħ": 5363,
      "##获": 5364,
      "##季": 5365,
      "##浜": 5366,
      "##ग": 5367,
      "##न": 5368,
      "##欧": 5369,
      "##度": 5370,
      "##验": 5371,
      "##ϑ": 5372,
      "##仲": 5373,
      "##裁": 5374,
      "##香": 5375,
      "##ᕖ": 5376,
      "##役": 5377,
      "##足": 5378,
      "##班": 5379,
      "##ᓖ": 5380,
      "##申": 5381,
      "##从": 5382,
      "##益": 5383,
      "##พ": 5384,
      "##ﺶ": 5385,
      "##ᆺ": 5386,
      "##握": 5387,
      "##欢": 5388,
      "##宮": 5389,
      "##升": 5390,
      "##凸": 5391,
      "##显": 5392,
      "##微": 5393,
      "##风": 5394,
      "##险": 5395,
      "##צ": 5396,
      "##獻": 5397,
      "##血": 5398,
      "##諸": 5399,
      "##閣": 5400,
      "##僚": 5401,
      "##询": 5402,
      "##感": 5403,
      "##遗": 5404,
      "##憾": 5405,
      "##聚": 5406,
      "##留": 5407,
      "##负": 5408,
      "##な": 5409,
      "##レ": 5410,
      "##払": 5411,
      "##に": 5412,
      "##警": 5413,
      "##を": 5414,
      "##吴": 5415,
      "##宝": 5416,
      "##吉": 5417,
      "##德": 5418,
      "##雷": 5419,
      "##財": 5420,
      "##閥": 5421,
      "##ﻵ": 5422,
      "##象": 5423,
      "##去": 5424,
      "##ศ": 5425,
      "##ĳ": 5426,
      "##竹": 5427,
      "##浦": 5428,
      "##博": 5429,
      "##Ⴐ": 5430,
      "##ǈ": 5431,
      "##Ĳ": 5432,
      "##ﻚ": 5433,
      "##伊": 5434,
      "##道": 5435,
      "##米": 5436,
      "##塞": 5437,
      "##纳": 5438,
      "##咨": 5439,
      "##意": 5440,
      "##ᙱ": 5441,
      "##ﲤ": 5442,
      "##ᄇ": 5443,
      "##耀": 5444,
      "##仁": 5445,
      "##放": 5446,
      "##气": 5447,
      "##類": 5448,
      "##舫": 5449,
      "##氏": 5450,
      "##ʰ": 5451,
      "##კ": 5452,
      "##ტ": 5453,
      "##გ": 5454,
      "##士": 5455,
      "##態": 5456,
      "##ワ": 5457,
      "##イ": 5458,
      "##エ": 5459,
      "##盘": 5460,
      "##价": 5461,
      "##值": 5462,
      "##ᐯ": 5463,
      "##接": 5464,
      "##穿": 5465,
      "##回": 5466,
      "##茶": 5467,
      "##ၝ": 5468,
      "##۷": 5469,
      "##ᅨ": 5470,
      "##ᙶ": 5471,
      "##ﹶ": 5472,
      "##骨": 5473,
      "##ᑰ": 5474,
      "##Ж": 5475,
      "##木": 5476,
      "##込": 5477,
      "##核": 5478,
      "##厂": 5479,
      "##ז": 5480,
      "##众": 5481,
      "##采": 5482,
      "##派": 5483,
      "##甜": 5484,
      "##跋": 5485,
      "##扈": 5486,
      "##便": 5487,
      "##め": 5488,
      "##真": 5489,
      "##庫": 5490,
      "##ﲰ": 5491,
      "##始": 5492,
      "##泥": 5493,
      "##ข": 5494,
      "##ณ": 5495,
      "##ゃ": 5496,
      "##ん": 5497,
      "##け": 5498,
      "##蒂": 5499,
      "##娜": 5500,
      "##啦": 5501,
      "##夷": 5502,
      "##操": 5503,
      "##溢": 5504,
      "##较": 5505,
      "##才": 5506,
      "##够": 5507,
      "##牙": 5508,
      "##Ъ": 5509,
      "##字": 5510,
      "##估": 5511,
      "##๑": 5512,
      "##难": 5513,
      "##细": 5514,
      "##ץ": 5515,
      "##废": 5516,
      "##料": 5517,
      "##营": 5518,
      "##养": 5519,
      "##素": 5520,
      "##位": 5521,
      "##央": 5522,
      "##应": 5523,
      "##急": 5524,
      "##基": 5525,
      "##џ": 5526,
      "##ဪ": 5527,
      "##ᒑ": 5528,
      "##庆": 5529,
      "##允": 5530,
      "##许": 5531,
      "##师": 5532,
      "##适": 5533,
      "##耕": 5534,
      "##强": 5535,
      "##效": 5536,
      "##女": 5537,
      "##姆": 5538,
      "##Ɔ": 5539,
      "##厉": 5540,
      "##击": 5541,
      "##摩": 5542,
      "##ᒫ": 5543,
      "##産": 5544,
      "##稅": 5545,
      "##評": 5546,
      "##凡": 5547,
      "##注": 5548,
      "##仍": 5549,
      "##降": 5550,
      "##柳": 5551,
      "##ﺊ": 5552,
      "##形": 5553,
      "##ᅴ": 5554,
      "##ﬄ": 5555,
      "##触": 5556,
      "##因": 5557,
      "##旱": 5558,
      "##还": 5559,
      "##软": 5560,
      "##华": 5561,
      "##โ": 5562,
      "##复": 5563,
      "##ᔫ": 5564,
      "##随": 5565,
      "##而": 5566,
      "##低": 5567,
      "##赖": 5568,
      "##鸣": 5569,
      "##黄": 5570,
      "##ᒌ": 5571,
      "##窯": 5572,
      "##滩": 5573,
      "##久": 5574,
      "##神": 5575,
      "##殿": 5576,
      "##洛": 5577,
      "##龙": 5578,
      "##头": 5579,
      "##寺": 5580,
      "##親": 5581,
      "##薯": 5582,
      "##抗": 5583,
      "##虫": 5584,
      "##Ƒ": 5585,
      "##者": 5586,
      "##账": 5587,
      "##ɑ": 5588,
      "##ᙲ": 5589,
      "##ၛ": 5590,
      "##ﱠ": 5591,
      "##呼": 5592,
      "##泉": 5593,
      "##指": 5594,
      "##紗": 5595,
      "##ム": 5596,
      "##灾": 5597,
      "##害": 5598,
      "##则": 5599,
      "##愿": 5600,
      "##赠": 5601,
      "##判": 5602,
      "##画": 5603,
      "##带": 5604,
      "##四": 5605,
      "##粮": 5606,
      "##ᓛ": 5607,
      "##ユ": 5608,
      "##ほ": 5609,
      "##長": 5610,
      "##迎": 5611,
      "##皇": 5612,
      "##庄": 5613,
      "##ƅ": 5614,
      "##ﱃ": 5615,
      "##拨": 5616,
      "##督": 5617,
      "##皞": 5618,
      "##୫": 5619,
      "##圭": 5620,
      "##業": 5621,
      "##靠": 5622,
      "##ң": 5623,
      "##ﲎ": 5624,
      "##率": 5625,
      "##呆": 5626,
      "##馆": 5627,
      "##现": 5628,
      "##೯": 5629,
      "##೦": 5630,
      "##೪": 5631,
      "##ᴹ": 5632,
      "##ᴰ": 5633,
      "##排": 5634,
      "##径": 5635,
      "##卓": 5636,
      "##钧": 5637,
      "##巫": 5638,
      "##桃": 5639,
      "##辑": 5640,
      "##袭": 5641,
      "##危": 5642,
      "##初": 5643,
      "##國": 5644,
      "##園": 5645,
      "##笔": 5646,
      "##Ɂ": 5647,
      "##۶": 5648,
      "##网": 5649,
      "##连": 5650,
      "##郎": 5651,
      "##過": 5652,
      "##ნ": 5653,
      "##Ө": 5654,
      "##帰": 5655,
      "##報": 5656,
      "##ﮦ": 5657,
      "##Ͷ": 5658,
      "##ब": 5659,
      "##य": 5660,
      "##厨": 5661,
      "##ђ": 5662,
      "##两": 5663,
      "##候": 5664,
      "##任": 5665,
      "##何": 5666,
      "##疏": 5667,
      "##忽": 5668,
      "##互": 5669,
      "##深": 5670,
      "##远": 5671,
      "##果": 5672,
      "##姦": 5673,
      "##俄": 5674,
      "##ｈ": 5675,
      "##ｏ": 5676,
      "##ｕ": 5677,
      "##ｌ": 5678,
      "##ｄ": 5679,
      "##ょ": 5680,
      "##せ": 5681,
      "##駅": 5682,
      "##差": 5683,
      "##异": 5684,
      "##避": 5685,
      "##免": 5686,
      "##翁": 5687,
      "##珠": 5688,
      "##运": 5689,
      "##ˋ": 5690,
      "##戸": 5691,
      "##汤": 5692,
      "##ญ": 5693,
      "##符": 5694,
      "##忙": 5695,
      "##逃": 5696,
      "##测": 5697,
      "##予": 5698,
      "##赞": 5699,
      "##纪": 5700,
      "##念": 5701,
      "##堂": 5702,
      "##北": 5703,
      "##ᆾ": 5704,
      "##ﳐ": 5705,
      "##若": 5706,
      "##語": 5707,
      "##装": 5708,
      "##流": 5709,
      "##具": 5710,
      "##治": 5711,
      "##罪": 5712,
      "##ﺲ": 5713,
      "##車": 5714,
      "##无": 5715,
      "##开": 5716,
      "##酸": 5717,
      "##盐": 5718,
      "##等": 5719,
      "##几": 5720,
      "##險": 5721,
      "##ɷ": 5722,
      "##抵": 5723,
      "##否": 5724,
      "##髻": 5725,
      "##蔵": 5726,
      "##門": 5727,
      "##宗": 5728,
      "##秉": 5729,
      "##壹": 5730,
      "##刚": 5731,
      "##穴": 5732,
      "##時": 5733,
      "##һ": 5734,
      "##洁": 5735,
      "##缆": 5736,
      "##延": 5737,
      "##续": 5738,
      "##键": 5739,
      "##ᆻ": 5740,
      "##ケ": 5741,
      "##Ү": 5742,
      "##云": 5743,
      "##反": 5744,
      "##考": 5745,
      "##ｅ": 5746,
      "##咬": 5747,
      "##梯": 5748,
      "##激": 5749,
      "##優": 5750,
      "##阳": 5751,
      "##个": 5752,
      "##ﳔ": 5753,
      "##温": 5754,
      "##弃": 5755,
      "##ᑳ": 5756,
      "##೭": 5757,
      "##೫": 5758,
      "##防": 5759,
      "##园": 5760,
      "##车": 5761,
      "##藏": 5762,
      "##ﻝ": 5763,
      "##ᙳ": 5764,
      "##ℇ": 5765,
      "##宿": 5766,
      "##紹": 5767,
      "##ے": 5768,
      "##玲": 5769,
      "##寿": 5770,
      "##省": 5771,
      "##残": 5772,
      "##疾": 5773,
      "##氧": 5774,
      "##碳": 5775,
      "##刺": 5776,
      "##植": 5777,
      "##兆": 5778,
      "##节": 5779,
      "##ͺ": 5780,
      "##趋": 5781,
      "##ᐤ": 5782,
      "##見": 5783,
      "##達": 5784,
      "##输": 5785,
      "##枚": 5786,
      "##ら": 5787,
      "##坚": 5788,
      "##۱": 5789,
      "##刷": 5790,
      "##ﰲ": 5791,
      "##ﯽ": 5792,
      "##征": 5793,
      "##聘": 5794,
      "##飼": 5795,
      "##帝": 5796,
      "##汶": 5797,
      "##撮": 5798,
      "##蒋": 5799,
      "##智": 5800,
      "##晶": 5801,
      "##惧": 5802,
      "##晚": 5803,
      "##ᔩ": 5804,
      "##設": 5805,
      "##浆": 5806,
      "##護": 5807,
      "##松": 5808,
      "##籍": 5809,
      "##蔓": 5810,
      "##布": 5811,
      "##陀": 5812,
      "##峡": 5813,
      "##齐": 5814,
      "##券": 5815,
      "##ȷ": 5816,
      "##江": 5817,
      "##锚": 5818,
      "##景": 5819,
      "##习": 5820,
      "##语": 5821,
      "##䨂": 5822,
      "##䨢": 5823,
      "##䰂": 5824,
      "##䰄": 5825,
      "##䰚": 5826,
      "##䰨": 5827,
      "##䰦": 5828,
      "##䰪": 5829,
      "##ﺚ": 5830,
      "##燃": 5831,
      "##摊": 5832,
      "##背": 5833,
      "##泊": 5834,
      "##偶": 5835,
      "##像": 5836,
      "##劇": 5837,
      "##调": 5838,
      "##ጨ": 5839,
      "##ረ": 5840,
      "##ሻ": 5841,
      "##溜": 5842,
      "##経": 5843,
      "##新": 5844,
      "##聞": 5845,
      "##岡": 5846,
      "##森": 5847,
      "##満": 5848,
      "##開": 5849,
      "##ヘ": 5850,
      "##チ": 5851,
      "##顮": 5852,
      "##拟": 5853,
      "##络": 5854,
      "##庸": 5855,
      "##培": 5856,
      "##训": 5857,
      "##ﱘ": 5858,
      "##措": 5859,
      "##ҫ": 5860,
      "##哥": 5861,
      "##整": 5862,
      "##绩": 5863,
      "##革": 5864,
      "##宣": 5865,
      "##荣": 5866,
      "##湯": 5867,
      "##ү": 5868,
      "##ә": 5869,
      "##屄": 5870,
      "##稻": 5871,
      "##埕": 5872,
      "##客": 5873,
      "##泄": 5874,
      "##損": 5875,
      "##闻": 5876,
      "##火": 5877,
      "##鉴": 5878,
      "##չ": 5879,
      "##ʾ": 5880,
      "##釣": 5881,
      "##橋": 5882,
      "##ﮑ": 5883,
      "##ﭩ": 5884,
      "##町": 5885,
      "##推": 5886,
      "##廣": 5887,
      "##掌": 5888,
      "##控": 5889,
      "##扩": 5890,
      "##充": 5891,
      "##コ": 5892,
      "##ャ": 5893,
      "##评": 5894,
      "##副": 5895,
      "##莱": 5896,
      "##奥": 5897,
      "##み": 5898,
      "##ね": 5899,
      "##頃": 5900,
      "##ﺁ": 5901,
      "##Ю": 5902,
      "##ﻆ": 5903,
      "##恢": 5904,
      "##復": 5905,
      "##器": 5906,
      "##葉": 5907,
      "##印": 5908,
      "##ᄏ": 5909,
      "##止": 5910,
      "##旅": 5911,
      "##軍": 5912,
      "##習": 5913,
      "##频": 5914,
      "##オ": 5915,
      "##屈": 5916,
      "##鹿": 5917,
      "##𐍃": 5918,
      "##𐌰": 5919,
      "##𐌽": 5920,
      "##𐌼": 5921,
      "##𐌴": 5922,
      "##𐍉": 5923,
      "##𐌸": 5924,
      "##屋": 5925,
      "##ϖ": 5926,
      "##焼": 5927,
      "##艳": 5928,
      "##舞": 5929,
      "##ﯿ": 5930,
      "##ɾ": 5931,
      "##ɐ": 5932,
      "##ʃ": 5933,
      "##䁲": 5934,
      "##享": 5935,
      "##遊": 5936,
      "##佳": 5937,
      "##網": 5938,
      "##必": 5939,
      "##爱": 5940,
      "##ϕ": 5941,
      "##争": 5942,
      "##序": 5943,
      "##璐": 5944,
      "##ہ": 5945,
      "##艺": 5946,
      "##ڈ": 5947,
      "##務": 5948,
      "##ᕚ": 5949,
      "##配": 5950,
      "##富": 5951,
      "##创": 5952,
      "##精": 5953,
      "##借": 5954,
      "##综": 5955,
      "##巡": 5956,
      "##逻": 5957,
      "##检": 5958,
      "##停": 5959,
      "##贞": 5960,
      "##ხ": 5961,
      "##ბ": 5962,
      "##Ʒ": 5963,
      "##跟": 5964,
      "##踪": 5965,
      "##ҵ": 5966,
      "##周": 5967,
      "##边": 5968,
      "##户": 5969,
      "##東": 5970,
      "##०": 5971,
      "##५": 5972,
      "##Ζ": 5973,
      "##々": 5974,
      "##唸": 5975,
      "##ገ": 5976,
      "##ስ": 5977,
      "##ት": 5978,
      "##壊": 5979,
      "##做": 5980,
      "##断": 5981,
      "##媛": 5982,
      "##ォ": 5983,
      "##宏": 5984,
      "##庭": 5985,
      "##造": 5986,
      "##析": 5987,
      "##ᐋ": 5988,
      "##授": 5989,
      "##承": 5990,
      "##耽": 5991,
      "##搁": 5992,
      "##ᓭ": 5993,
      "##犯": 5994,
      "##午": 5995,
      "##伏": 5996,
      "##實": 5997,
      "##丨": 5998,
      "##ʻ": 5999,
      "##暖": 6000,
      "##即": 6001,
      "##贷": 6002,
      "##功": 6003,
      "##剩": 6004,
      "##ﹼ": 6005,
      "##勢": 6006,
      "##ㄟ": 6007,
      "##籠": 6008,
      "##曼": 6009,
      "##僕": 6010,
      "##喂": 6011,
      "##模": 6012,
      "##師": 6013,
      "##ヒ": 6014,
      "##麦": 6015,
      "##ﱄ": 6016,
      "##索": 6017,
      "##ᄁ": 6018,
      "##館": 6019,
      "##き": 6020,
      "##許": 6021,
      "##址": 6022,
      "##税": 6023,
      "##桑": 6024,
      "##曲": 6025,
      "##羅": 6026,
      "##坑": 6027,
      "##儒": 6028,
      "##त": 6029,
      "##म": 6030,
      "##ฟ": 6031,
      "##看": 6032,
      "##乎": 6033,
      "##難": 6034,
      "##認": 6035,
      "##脑": 6036,
      "##ธ": 6037,
      "##然": 6038,
      "##ᑮ": 6039,
      "##ᵐ": 6040,
      "##ᵉ": 6041,
      "##佰": 6042,
      "##箭": 6043,
      "##吹": 6044,
      "##飛": 6045,
      "##滝": 6046,
      "##菜": 6047,
      "##४": 6048,
      "##ﱵ": 6049,
      "##ㄞ": 6050,
      "##ˊ": 6051,
      "##当": 6052,
      "##へ": 6053,
      "##ﮉ": 6054,
      "##顺": 6055,
      "##清": 6056,
      "##束": 6057,
      "##诠": 6058,
      "##译": 6059,
      "##署": 6060,
      "##Ａ": 6061,
      "##Ｐ": 6062,
      "##Ｎ": 6063,
      "##散": 6064,
      "##练": 6065,
      "##牌": 6066,
      "##终": 6067,
      "##置": 6068,
      "##薩": 6069,
      "##钱": 6070,
      "##噌": 6071,
      "##ツ": 6072,
      "##肃": 6073,
      "##ᐲ": 6074,
      "##頭": 6075,
      "##耳": 6076,
      "##针": 6077,
      "##疗": 6078,
      "##ᅣ": 6079,
      "##ɨ": 6080,
      "##མ": 6081,
      "##棋": 6082,
      "##吨": 6083,
      "##帳": 6084,
      "##油": 6085,
      "##林": 6086,
      "##ᑊ": 6087,
      "##ფ": 6088,
      "##ミ": 6089,
      "##谐": 6090,
      "##応": 6091,
      "##請": 6092,
      "##ᕿ": 6093,
      "##百": 6094,
      "##零": 6095,
      "##朝": 6096,
      "##迈": 6097,
      "##说": 6098,
      "##启": 6099,
      "##ฉ": 6100,
      "##千": 6101,
      "##װ": 6102,
      "##乐": 6103,
      "##祸": 6104,
      "##凭": 6105,
      "##湾": 6106,
      "##哈": 6107,
      "##む": 6108,
      "##つ": 6109,
      "##冤": 6110,
      "##颠": 6111,
      "##覆": 6112,
      "##纽": 6113,
      "##库": 6114,
      "##ﲞ": 6115,
      "##痛": 6116,
      "##暫": 6117,
      "##ད": 6118,
      "##衫": 6119,
      "##Ⅱ": 6120,
      "##殺": 6121,
      "##ѥ": 6122,
      "##於": 6123,
      "##ュ": 6124,
      "##嬉": 6125,
      "##波": 6126,
      "##丽": 6127,
      "##黛": 6128,
      "##猎": 6129,
      "##古": 6130,
      "##ᓀ": 6131,
      "##萄": 6132,
      "##小": 6133,
      "##企": 6134,
      "##稳": 6135,
      "##团": 6136,
      "##昨": 6137,
      "##遠": 6138,
      "##姫": 6139,
      "##股": 6140,
      "##臺": 6141,
      "##幣": 6142,
      "##ʢ": 6143,
      "##無": 6144,
      "##ﰐ": 6145,
      "##买": 6146,
      "##似": 6147,
      "##朗": 6148,
      "##窗": 6149,
      "##囚": 6150,
      "##徒": 6151,
      "##୦": 6152,
      "##୯": 6153,
      "##ይ": 6154,
      "##章": 6155,
      "##費": 6156,
      "##抜": 6157,
      "##擢": 6158,
      "##綴": 6159,
      "##ല": 6160,
      "##യ": 6161,
      "##ള": 6162,
      "##驶": 6163,
      "##堡": 6164,
      "##谷": 6165,
      "##埵": 6166,
      "##駄": 6167,
      "##思": 6168,
      "##春": 6169,
      "##ﺂ": 6170,
      "##称": 6171,
      "##對": 6172,
      "##賬": 6173,
      "##范": 6174,
      "##围": 6175,
      "##徳": 6176,
      "##赔": 6177,
      "##沢": 6178,
      "##ҏ": 6179,
      "##妮": 6180,
      "##宅": 6181,
      "##揭": 6182,
      "##記": 6183,
      "##憶": 6184,
      "##後": 6185,
      "##編": 6186,
      "##ɣ": 6187,
      "##泽": 6188,
      "##顾": 6189,
      "##０": 6190,
      "##６": 6191,
      "##落": 6192,
      "##ﲣ": 6193,
      "##搗": 6194,
      "##ﻍ": 6195,
      "##辆": 6196,
      "##尊": 6197,
      "##叫": 6198,
      "##损": 6199,
      "##潜": 6200,
      "##例": 6201,
      "##优": 6202,
      "##促": 6203,
      "##責": 6204,
      "##李": 6205,
      "##锋": 6206,
      "##琴": 6207,
      "##醍": 6208,
      "##醐": 6209,
      "##運": 6210,
      "##吧": 6211,
      "##銘": 6212,
      "##热": 6213,
      "##瘤": 6214,
      "##ᐆ": 6215,
      "##却": 6216,
      "##爪": 6217,
      "##話": 6218,
      "##群": 6219,
      "##嘛": 6220,
      "##ｓ": 6221,
      "##ⁿ": 6222,
      "##ᕘ": 6223,
      "##ퟒ": 6224,
      "##纷": 6225,
      "##涌": 6226,
      "##辅": 6227,
      "##ქ": 6228,
      "##ѯ": 6229,
      "##ふ": 6230,
      "##汁": 6231,
      "##粉": 6232,
      "##册": 6233,
      "##九": 6234,
      "##伝": 6235,
      "##貿": 6236,
      "##發": 6237,
      "##白": 6238,
      "##ハ": 6239,
      "##飾": 6240,
      "##あ": 6241,
      "##逸": 6242,
      "##队": 6243,
      "##离": 6244,
      "##ɪ": 6245,
      "##宜": 6246,
      "##灌": 6247,
      "##溉": 6248,
      "##漏": 6249,
      "##掉": 6250,
      "##典": 6251,
      "##聾": 6252,
      "##弱": 6253,
      "##聽": 6254,
      "##努": 6255,
      "##鱲": 6256,
      "##秀": 6257,
      "##ﲬ": 6258,
      "##郭": 6259,
      "##冠": 6260,
      "##英": 6261,
      "##芋": 6262,
      "##圓": 6263,
      "##鄉": 6264,
      "##淹": 6265,
      "##村": 6266,
      "##轻": 6267,
      "##忻": 6268,
      "##须": 6269,
      "##虑": 6270,
      "##船": 6271,
      "##械": 6272,
      "##磁": 6273,
      "##ҡ": 6274,
      "##坛": 6275,
      "##ﮯ": 6276,
      "##薪": 6277,
      "##帮": 6278,
      "##動": 6279,
      "##済": 6280,
      "##ﺉ": 6281,
      "##荐": 6282,
      "##୭": 6283,
      "##ᄍ": 6284,
      "##渐": 6285,
      "##镜": 6286,
      "##駛": 6287,
      "##執": 6288,
      "##坂": 6289,
      "##प": 6290,
      "##ल": 6291,
      "##页": 6292,
      "##础": 6293,
      "##Ƶ": 6294,
      "##陈": 6295,
      "##铭": 6296,
      "##ℜ": 6297,
      "##驻": 6298,
      "##胁": 6299,
      "##佑": 6300,
      "##囲": 6301,
      "##圆": 6302,
      "##啓": 6303,
      "##ﲢ": 6304,
      "##慣": 6305,
      "##呂": 6306,
      "##敷": 6307,
      "##ƽ": 6308,
      "##區": 6309,
      "##棒": 6310,
      "##娱": 6311,
      "##丰": 6312,
      "##结": 6313,
      "##添": 6314,
      "##実": 6315,
      "##甘": 6316,
      "##敏": 6317,
      "##母": 6318,
      "##თ": 6319,
      "##連": 6320,
      "##荫": 6321,
      "##翰": 6322,
      "##裩": 6323,
      "##ﱴ": 6324,
      "##腊": 6325,
      "##Ŀ": 6326,
      "##快": 6327,
      "##熟": 6328,
      "##阜": 6329,
      "##乏": 6330,
      "##材": 6331,
      "##遇": 6332,
      "##ᕑ": 6333,
      "##ﺵ": 6334,
      "##購": 6335,
      "##诗": 6336,
      "##閡": 6337,
      "##風": 6338,
      "##擁": 6339,
      "##继": 6340,
      "##沒": 6341,
      "##辦": 6342,
      "##寄": 6343,
      "##給": 6344,
      "##朋": 6345,
      "##友": 6346,
      "##嗎": 6347,
      "##臂": 6348,
      "##挡": 6349,
      "##糖": 6350,
      "##囧": 6351,
      "##ﾩ": 6352,
      "##漫": 6353,
      "##ろ": 6354,
      "##飞": 6355,
      "##至": 6356,
      "##ۆ": 6357,
      "##ڤ": 6358,
      "##积": 6359,
      "##夜": 6360,
      "##惨": 6361,
      "##猫": 6362,
      "##ʋ": 6363,
      "##潭": 6364,
      "##縣": 6365,
      "##静": 6366,
      "##怡": 6367,
      "##暴": 6368,
      "##忍": 6369,
      "##脚": 6370,
      "##档": 6371,
      "##补": 6372,
      "##救": 6373,
      "##辞": 6374,
      "##ﮫ": 6375,
      "##唱": 6376,
      "##議": 6377,
      "##や": 6378,
      "##遣": 6379,
      "##巨": 6380,
      "##缓": 6381,
      "##ᆰ": 6382,
      "##賢": 6383,
      "##द": 6384,
      "##қ": 6385,
      "##資": 6386,
      "##訊": 6387,
      "##種": 6388,
      "##祖": 6389,
      "##裔": 6390,
      "##佈": 6391,
      "##谅": 6392,
      "##忘": 6393,
      "##催": 6394,
      "##気": 6395,
      "##変": 6396,
      "##學": 6397,
      "##孟": 6398,
      "##妖": 6399,
      "##誕": 6400,
      "##悬": 6401,
      "##疑": 6402,
      "##斤": 6403,
      "##丸": 6404,
      "##鱼": 6405,
      "##ף": 6406,
      "##今": 6407,
      "##問": 6408,
      "##題": 6409,
      "##ಶ": 6410,
      "##韩": 6411,
      "##赶": 6412,
      "##ฯ": 6413,
      "##臓": 6414,
      "##饭": 6415,
      "##賃": 6416,
      "##貸": 6417,
      "##ղ": 6418,
      "##բ": 6419,
      "##幾": 6420,
      "##ǌ": 6421,
      "##跃": 6422,
      "##萧": 6423,
      "##洒": 6424,
      "##狐": 6425,
      "##１": 6426,
      "##ﯼ": 6427,
      "##拜": 6428,
      "##疆": 6429,
      "##洱": 6430,
      "##ฏ": 6431,
      "##ᐴ": 6432,
      "##ө": 6433,
      "##紀": 6434,
      "##嶺": 6435,
      "##奈": 6436,
      "##恵": 6437,
      "##柏": 6438,
      "##瑞": 6439,
      "##ﻺ": 6440,
      "##備": 6441,
      "##ﳑ": 6442,
      "##Ⅳ": 6443,
      "##ฝ": 6444,
      "##協": 6445,
      "##绪": 6446,
      "##禁": 6447,
      "##स": 6448,
      "##赛": 6449,
      "##儿": 6450,
      "##績": 6451,
      "##論": 6452,
      "##୨": 6453,
      "##诘": 6454,
      "##诉": 6455,
      "##讼": 6456,
      "##朱": 6457,
      "##旨": 6458,
      "##顷": 6459,
      "##喜": 6460,
      "##虎": 6461,
      "##峻": 6462,
      "##ህ": 6463,
      "##ﳚ": 6464,
      "##澳": 6465,
      "##示": 6466,
      "##ヨ": 6467,
      "##थ": 6468,
      "##受": 6469,
      "##ヤ": 6470,
      "##ฃ": 6471,
      "##ฒ": 6472,
      "##ӡ": 6473,
      "##ˢ": 6474,
      "##۲": 6475,
      "##烏": 6476,
      "##魂": 6477,
      "##笑": 6478,
      "##浄": 6479,
      "##诺": 6480,
      "##۵": 6481,
      "##ᆠ": 6482,
      "##ল": 6483,
      "##ক": 6484,
      "##ᖄ": 6485,
      "##沙": 6486,
      "##择": 6487,
      "##モ": 6488,
      "##旦": 6489,
      "##普": 6490,
      "##継": 6491,
      "##ﻶ": 6492,
      "##黎": 6493,
      "##缩": 6494,
      "##𠄲": 6495,
      "##簽": 6496,
      "##員": 6497,
      "##Ｖ": 6498,
      "##津": 6499,
      "##贴": 6500,
      "##演": 6501,
      "##薬": 6502,
      "##扬": 6503,
      "##簡": 6504,
      "##単": 6505,
      "##দ": 6506,
      "##茧": 6507,
      "##阅": 6508,
      "##娅": 6509,
      "##床": 6510,
      "##韦": 6511,
      "##ں": 6512,
      "##池": 6513,
      "##距": 6514,
      "##毒": 6515,
      "##宛": 6516,
      "##摇": 6517,
      "##尾": 6518,
      "##ᮖ": 6519,
      "##ち": 6520,
      "##麻": 6521,
      "##參": 6522,
      "##ภ": 6523,
      "##ฑ": 6524,
      "##負": 6525,
      "##药": 6526,
      "##權": 6527,
      "##鞋": 6528,
      "##忠": 6529,
      "##ұ": 6530,
      "##稀": 6531,
      "##树": 6532,
      "##関": 6533,
      "##え": 6534,
      "##坐": 6535,
      "##泳": 6536,
      "##ʱ": 6537,
      "##ᆹ": 6538,
      "##殘": 6539,
      "##專": 6540,
      "##銀": 6541,
      "##乗": 6542,
      "##么": 6543,
      "##再": 6544,
      "##華": 6545,
      "##ರ": 6546,
      "##換": 6547,
      "##艇": 6548,
      "##往": 6549,
      "##那": 6550,
      "##節": 6551,
      "##句": 6552,
      "##父": 6553,
      "##涩": 6554,
      "##郷": 6555,
      "##蔚": 6556,
      "##証": 6557,
      "##対": 6558,
      "##術": 6559,
      "##ﱯ": 6560,
      "##終": 6561,
      "##浴": 6562,
      "##兒": 6563,
      "##童": 6564,
      "##ｰ": 6565,
      "##會": 6566,
      "##ተ": 6567,
      "##ቀ": 6568,
      "##የ": 6569,
      "##ው": 6570,
      "##ھ": 6571,
      "##禽": 6572,
      "##奉": 6573,
      "##還": 6574,
      "##覧": 6575,
      "##答": 6576,
      "##ﯾ": 6577,
      "##盖": 6578,
      "##ҽ": 6579,
      "##況": 6580,
      "##㣬": 6581,
      "##ह": 6582,
      "##ᆽ": 6583,
      "##待": 6584,
      "##莹": 6585,
      "##迟": 6586,
      "##泰": 6587,
      "##輿": 6588,
      "##莽": 6589,
      "##ʡ": 6590,
      "##佐": 6591,
      "##შ": 6592,
      "##招": 6593,
      "##觀": 6594,
      "##鑒": 6595,
      "##钦": 6596,
      "##ᖠ": 6597,
      "##ノ": 6598,
      "##ზ": 6599,
      "##ǝ": 6600,
      "##ʇ": 6601,
      "##琮": 6602,
      "##幌": 6603,
      "##恩": 6604,
      "##組": 6605,
      "##鍵": 6606,
      "##ᔓ": 6607,
      "##夠": 6608,
      "##阻": 6609,
      "##挠": 6610,
      "##圣": 6611,
      "##卢": 6612,
      "##霍": 6613,
      "##拥": 6614,
      "##ɹ": 6615,
      "##ﱢ": 6616,
      "##另": 6617,
      "##兹": 6618,
      "##幹": 6619,
      "##濟": 6620,
      "##廚": 6621,
      "##ম": 6622,
      "##雲": 6623,
      "##୪": 6624,
      "##პ": 6625,
      "##映": 6626,
      "##尽": 6627,
      "##染": 6628,
      "##播": 6629,
      "##裏": 6630,
      "##様": 6631,
      "##雑": 6632,
      "##希": 6633,
      "##魚": 6634,
      "##桥": 6635,
      "##屑": 6636,
      "##ŋ": 6637,
      "##贩": 6638,
      "##診": 6639,
      "##絵": 6640,
      "##赵": 6641,
      "##纲": 6642,
      "##ण": 6643,
      "##轩": 6644,
      "##ɚ": 6645,
      "##邑": 6646,
      "##嫩": 6647,
      "##ȹ": 6648,
      "##廷": 6649,
      "##ゅ": 6650,
      "##農": 6651,
      "##環": 6652,
      "##段": 6653,
      "##庁": 6654,
      "##es": 6655,
      "##on": 6656,
      "##ti": 6657,
      "##er": 6658,
      "##en": 6659,
      "##an": 6660,
      "de": 6661,
      "##tion": 6662,
      "th": 6663,
      "##re": 6664,
      "##in": 6665,
      "##te": 6666,
      "##ent": 6667,
      "##is": 6668,
      "##or": 6669,
      "the": 6670,
      "##ur": 6671,
      "##al": 6672,
      "##os": 6673,
      "##ar": 6674,
      "ap": 6675,
      "##ation": 6676,
      "in": 6677,
      "##it": 6678,
      "##ro": 6679,
      "##le": 6680,
      "apos": 6681,
      "of": 6682,
      "an": 6683,
      "##ment": 6684,
      "##ic": 6685,
      "##om": 6686,
      "et": 6687,
      "la": 6688,
      "##ec": 6689,
      "##ou": 6690,
      "##el": 6691,
      "and": 6692,
      "des": 6693,
      "##at": 6694,
      "##ed": 6695,
      "to": 6696,
      "en": 6697,
      "##il": 6698,
      "qu": 6699,
      "##ra": 6700,
      "le": 6701,
      "##qu": 6702,
      "con": 6703,
      "##ce": 6704,
      "re": 6705,
      "##as": 6706,
      "##ne": 6707,
      "pro": 6708,
      "les": 6709,
      "##ing": 6710,
      "##our": 6711,
      "##res": 6712,
      "au": 6713,
      "##si": 6714,
      "##et": 6715,
      "##ant": 6716,
      "##ol": 6717,
      "##st": 6718,
      "##ter": 6719,
      "##ve": 6720,
      "##ri": 6721,
      "par": 6722,
      "du": 6723,
      "##me": 6724,
      "com": 6725,
      "##ul": 6726,
      "##ai": 6727,
      "##ci": 6728,
      "##ad": 6729,
      "##ans": 6730,
      "##ch": 6731,
      "##us": 6732,
      "for": 6733,
      "##00": 6734,
      "##ir": 6735,
      "##mp": 6736,
      "##ot": 6737,
      "##op": 6738,
      "##ab": 6739,
      "un": 6740,
      "on": 6741,
      "##ts": 6742,
      "##ig": 6743,
      "##se": 6744,
      "ex": 6745,
      "##ite": 6746,
      "##ie": 6747,
      "##de": 6748,
      "##ate": 6749,
      "##ag": 6750,
      "##ers": 6751,
      "##ations": 6752,
      "##au": 6753,
      "ac": 6754,
      "##ff": 6755,
      "##que": 6756,
      "su": 6757,
      "200": 6758,
      "##he": 6759,
      "res": 6760,
      "##ver": 6761,
      "pour": 6762,
      "##un": 6763,
      "##ati": 6764,
      "##ces": 6765,
      "##ort": 6766,
      "as": 6767,
      "##ac": 6768,
      "be": 6769,
      "##ion": 6770,
      "##sion": 6771,
      "or": 6772,
      "##ain": 6773,
      "##mb": 6774,
      "is": 6775,
      "##id": 6776,
      "sur": 6777,
      "##ere": 6778,
      "##ure": 6779,
      "que": 6780,
      "dans": 6781,
      "##th": 6782,
      "une": 6783,
      "that": 6784,
      "##ly": 6785,
      "##ut": 6786,
      "pl": 6787,
      "##ont": 6788,
      "##end": 6789,
      "##les": 6790,
      "app": 6791,
      "st": 6792,
      "##iv": 6793,
      "##ous": 6794,
      "The": 6795,
      "est": 6796,
      "##ith": 6797,
      "##ap": 6798,
      "##tin": 6799,
      "##ay": 6800,
      "se": 6801,
      "##omm": 6802,
      "al": 6803,
      "##tions": 6804,
      "##ist": 6805,
      "##ance": 6806,
      "##ale": 6807,
      "##du": 6808,
      "##iti": 6809,
      "In": 6810,
      "##and": 6811,
      "comp": 6812,
      "av": 6813,
      "##vel": 6814,
      "##ments": 6815,
      "inter": 6816,
      "##anad": 6817,
      "with": 6818,
      "ch": 6819,
      "##di": 6820,
      "##for": 6821,
      "##ity": 6822,
      "##lo": 6823,
      "##li": 6824,
      "##ence": 6825,
      "rec": 6826,
      "##ue": 6827,
      "##am": 6828,
      "wh": 6829,
      "ne": 6830,
      "qui": 6831,
      "##age": 6832,
      "##ct": 6833,
      "mo": 6834,
      "me": 6835,
      "ad": 6836,
      "ou": 6837,
      "pre": 6838,
      "##tre": 6839,
      "##ire": 6840,
      "##tic": 6841,
      "##oc": 6842,
      "##ge": 6843,
      "##ction": 6844,
      "Canad": 6845,
      "##urs": 6846,
      "##ques": 6847,
      "##pec": 6848,
      "##erv": 6849,
      "##ill": 6850,
      "by": 6851,
      "##ted": 6852,
      "imp": 6853,
      "##um": 6854,
      "##aire": 6855,
      "at": 6856,
      "reg": 6857,
      "##oun": 6858,
      "19": 6859,
      "comm": 6860,
      "##ational": 6861,
      "##ait": 6862,
      "##port": 6863,
      "##fic": 6864,
      "##lic": 6865,
      "tra": 6866,
      "##able": 6867,
      "aux": 6868,
      "##der": 6869,
      "##mes": 6870,
      "are": 6871,
      "##ven": 6872,
      "##ise": 6873,
      "##ub": 6874,
      "per": 6875,
      "##gra": 6876,
      "##min": 6877,
      "##ies": 6878,
      "##form": 6879,
      "Un": 6880,
      "##pe": 6881,
      "##ud": 6882,
      "so": 6883,
      "cont": 6884,
      "Comm": 6885,
      "il": 6886,
      "##per": 6887,
      "##cl": 6888,
      "Con": 6889,
      "##pos": 6890,
      "##ting": 6891,
      "##ais": 6892,
      "##aux": 6893,
      "##rou": 6894,
      "Le": 6895,
      "dis": 6896,
      "sec": 6897,
      "##ien": 6898,
      "not": 6899,
      "Canada": 6900,
      "##ru": 6901,
      "##velop": 6902,
      "ar": 6903,
      "##lement": 6904,
      "pres": 6905,
      "Re": 6906,
      "##ves": 6907,
      "##ow": 6908,
      "##ission": 6909,
      "##ld": 6910,
      "##ard": 6911,
      "pas": 6912,
      "quot": 6913,
      "##ons": 6914,
      "##tu": 6915,
      "##tat": 6916,
      "##gram": 6917,
      "##out": 6918,
      "##im": 6919,
      "##ine": 6920,
      "pe": 6921,
      "rep": 6922,
      "##ites": 6923,
      "##ervic": 6924,
      "eff": 6925,
      "##gan": 6926,
      "##ess": 6927,
      "##igh": 6928,
      "ob": 6929,
      "##ants": 6930,
      "##rom": 6931,
      "cons": 6932,
      "ce": 6933,
      "pr": 6934,
      "##ique": 6935,
      "##ener": 6936,
      "##og": 6937,
      "ag": 6938,
      "##ak": 6939,
      "##ord": 6940,
      "develop": 6941,
      "##od": 6942,
      "##ail": 6943,
      "##ten": 6944,
      "sh": 6945,
      "##aires": 6946,
      "##ures": 6947,
      "parti": 6948,
      "di": 6949,
      "aut": 6950,
      "##ble": 6951,
      "##ision": 6952,
      "##ich": 6953,
      "ass": 6954,
      "##its": 6955,
      "##fer": 6956,
      "fin": 6957,
      "plus": 6958,
      "prov": 6959,
      "##ys": 6960,
      "##ux": 6961,
      "##ary": 6962,
      "acc": 6963,
      "from": 6964,
      "##ult": 6965,
      "##ari": 6966,
      "co": 6967,
      "pol": 6968,
      "sont": 6969,
      "##ould": 6970,
      "##onn": 6971,
      "##ork": 6972,
      "##oin": 6973,
      "##ier": 6974,
      "pers": 6975,
      "pos": 6976,
      "tr": 6977,
      "##cer": 6978,
      "##ace": 6979,
      "##ated": 6980,
      "##lis": 6981,
      "##ond": 6982,
      "##enti": 6983,
      "Pro": 6984,
      "##ave": 6985,
      "inform": 6986,
      "##tive": 6987,
      "Les": 6988,
      "199": 6989,
      "rel": 6990,
      "##her": 6991,
      "La": 6992,
      "##onne": 6993,
      "ont": 6994,
      "##che": 6995,
      "was": 6996,
      "##rib": 6997,
      "##iz": 6998,
      "&#": 6999,
      "##ope": 7000,
      "intern": 7001,
      "##ear": 7002,
      "##cip": 7003,
      "servic": 7004,
      "program": 7005,
      "De": 7006,
      "##ign": 7007,
      "En": 7008,
      "##all": 7009,
      "##tiv": 7010,
      "##ial": 7011,
      "this": 7012,
      "organ": 7013,
      "##ors": 7014,
      "ter": 7015,
      "##ore": 7016,
      "##ens": 7017,
      "##jec": 7018,
      "produ": 7019,
      "##ide": 7020,
      "##ther": 7021,
      "pub": 7022,
      "entre": 7023,
      "sa": 7024,
      "Par": 7025,
      "##sti": 7026,
      "mar": 7027,
      "##ution": 7028,
      "ec": 7029,
      "##cial": 7030,
      "##urope": 7031,
      "which": 7032,
      "##elle": 7033,
      "ete": 7034,
      "avec": 7035,
      "##ric": 7036,
      "Th": 7037,
      "##mber": 7038,
      "##ents": 7039,
      "have": 7040,
      "##por": 7041,
      "do": 7042,
      "it": 7043,
      "am": 7044,
      "will": 7045,
      "##ang": 7046,
      "dem": 7047,
      "##ues": 7048,
      "its": 7049,
      "commun": 7050,
      "##ities": 7051,
      "##ase": 7052,
      "man": 7053,
      "##par": 7054,
      "trans": 7055,
      "##ante": 7056,
      "no": 7057,
      "el": 7058,
      "ev": 7059,
      "sub": 7060,
      "##ays": 7061,
      "##yste": 7062,
      "##cess": 7063,
      "ab": 7064,
      "etre": 7065,
      "##ced": 7066,
      "##ount": 7067,
      "gener": 7068,
      "##tes": 7069,
      "Ch": 7070,
      "##over": 7071,
      "##ech": 7072,
      "te": 7073,
      "pri": 7074,
      "exp": 7075,
      "##teg": 7076,
      "##ree": 7077,
      "##onom": 7078,
      "spec": 7079,
      "##ene": 7080,
      "##oir": 7081,
      "##ip": 7082,
      "##ette": 7083,
      "##are": 7084,
      "emp": 7085,
      "dec": 7086,
      "ses": 7087,
      "has": 7088,
      "Commission": 7089,
      "##ph": 7090,
      "dro": 7091,
      "##jet": 7092,
      "##ative": 7093,
      "##ib": 7094,
      "he": 7095,
      "sup": 7096,
      "rap": 7097,
      "As": 7098,
      "##so": 7099,
      "information": 7100,
      "##ice": 7101,
      "min": 7102,
      "##ust": 7103,
      "St": 7104,
      "fac": 7105,
      "concer": 7106,
      "their": 7107,
      "##gh": 7108,
      "all": 7109,
      "activ": 7110,
      "##olog": 7111,
      "##ms": 7112,
      "##tain": 7113,
      "##ong": 7114,
      "Sec": 7115,
      "##iques": 7116,
      "syste": 7117,
      "cl": 7118,
      "ele": 7119,
      "trav": 7120,
      "##ia": 7121,
      "##..": 7122,
      "##ande": 7123,
      "##ome": 7124,
      "##av": 7125,
      "##ales": 7126,
      "##ell": 7127,
      "##ret": 7128,
      "##ours": 7129,
      "Com": 7130,
      "##ach": 7131,
      "##els": 7132,
      "##oi": 7133,
      "##ition": 7134,
      "##tee": 7135,
      "incl": 7136,
      "services": 7137,
      "mon": 7138,
      "##if": 7139,
      "##est": 7140,
      "Etat": 7141,
      "import": 7142,
      "##tif": 7143,
      "sou": 7144,
      "##isation": 7145,
      "##estion": 7146,
      "##ited": 7147,
      "##vir": 7148,
      "##rit": 7149,
      "Nations": 7150,
      "appro": 7151,
      "##fin": 7152,
      "10": 7153,
      "international": 7154,
      "ser": 7155,
      "part": 7156,
      "##vention": 7157,
      "dep": 7158,
      "##ater": 7159,
      "##overn": 7160,
      "##ry": 7161,
      "dire": 7162,
      "##ouver": 7163,
      "fe": 7164,
      "work": 7165,
      "inc": 7166,
      "under": 7167,
      "ver": 7168,
      "region": 7169,
      "diff": 7170,
      "we": 7171,
      "##ente": 7172,
      "##abil": 7173,
      "es": 7174,
      "##ises": 7175,
      "##nement": 7176,
      "12": 7177,
      "##echn": 7178,
      "##ticle": 7179,
      "##ient": 7180,
      "Il": 7181,
      "econom": 7182,
      "emplo": 7183,
      "si": 7184,
      "form": 7185,
      "##uation": 7186,
      "ren": 7187,
      "other": 7188,
      "autres": 7189,
      "##ille": 7190,
      "eg": 7191,
      "##iss": 7192,
      "col": 7193,
      "public": 7194,
      "non": 7195,
      "##ose": 7196,
      "pays": 7197,
      "ces": 7198,
      "##ister": 7199,
      "##teur": 7200,
      "met": 7201,
      "##low": 7202,
      "also": 7203,
      "memb": 7204,
      "Europe": 7205,
      "op": 7206,
      "##ole": 7207,
      "int": 7208,
      "resp": 7209,
      "##ific": 7210,
      "leur": 7211,
      "out": 7212,
      "##ical": 7213,
      "dev": 7214,
      "##ange": 7215,
      "nom": 7216,
      "##ian": 7217,
      "##und": 7218,
      "##ive": 7219,
      "##ticul": 7220,
      "been": 7221,
      "politi": 7222,
      "##elles": 7223,
      "ind": 7224,
      "##stru": 7225,
      "us": 7226,
      "uti": 7227,
      "##ese": 7228,
      "##ources": 7229,
      "##use": 7230,
      "propos": 7231,
      "##iere": 7232,
      "personn": 7233,
      "##ob": 7234,
      "perm": 7235,
      "##ress": 7236,
      "##ile": 7237,
      "##ocu": 7238,
      "##pr": 7239,
      "can": 7240,
      "particul": 7241,
      "##ual": 7242,
      "ca": 7243,
      "techn": 7244,
      "cre": 7245,
      "cer": 7246,
      "##roup": 7247,
      "##ild": 7248,
      "##ences": 7249,
      "were": 7250,
      "applic": 7251,
      "son": 7252,
      "##pement": 7253,
      "national": 7254,
      "An": 7255,
      "##stitu": 7256,
      "##uv": 7257,
      "car": 7258,
      "cette": 7259,
      "##ration": 7260,
      "consi": 7261,
      "##olution": 7262,
      "concern": 7263,
      "##semb": 7264,
      "##alement": 7265,
      "##ON": 7266,
      "##duc": 7267,
      "##ins": 7268,
      "Ar": 7269,
      "repres": 7270,
      "Al": 7271,
      "##ren": 7272,
      "##seil": 7273,
      "##oint": 7274,
      "##cc": 7275,
      "##tern": 7276,
      "count": 7277,
      "effec": 7278,
      "aff": 7279,
      "##ote": 7280,
      "tout": 7281,
      "envir": 7282,
      "secur": 7283,
      "##ES": 7284,
      "fait": 7285,
      "leg": 7286,
      "prin": 7287,
      "##aient": 7288,
      "hum": 7289,
      "cap": 7290,
      "##alth": 7291,
      "##cep": 7292,
      "mes": 7293,
      "##ois": 7294,
      "##one": 7295,
      "##ances": 7296,
      "Me": 7297,
      "91": 7298,
      "year": 7299,
      "##dition": 7300,
      "prote": 7301,
      "20": 7302,
      "On": 7303,
      "nous": 7304,
      "process": 7305,
      "requ": 7306,
      "##ablis": 7307,
      "comme": 7308,
      "##ake": 7309,
      "travail": 7310,
      "cent": 7311,
      "93": 7312,
      "decision": 7313,
      "nou": 7314,
      "##ost": 7315,
      "oper": 7316,
      "cas": 7317,
      "United": 7318,
      "equ": 7319,
      "##overnment": 7320,
      "should": 7321,
      "##iew": 7322,
      "bas": 7323,
      "##eration": 7324,
      "##ages": 7325,
      "##ference": 7326,
      "developpement": 7327,
      "conf": 7328,
      "##ui": 7329,
      "##igne": 7330,
      "##mer": 7331,
      "contin": 7332,
      "##rateg": 7333,
      "##atin": 7334,
      "##bil": 7335,
      "gr": 7336,
      "docu": 7337,
      "##oy": 7338,
      "anne": 7339,
      "##agra": 7340,
      "##ty": 7341,
      "red": 7342,
      "finan": 7343,
      "2005": 7344,
      "present": 7345,
      "soci": 7346,
      "##get": 7347,
      "##ittee": 7348,
      "11": 7349,
      "For": 7350,
      "##ates": 7351,
      "##ries": 7352,
      "2006": 7353,
      "plan": 7354,
      "Etats": 7355,
      "disc": 7356,
      "##cy": 7357,
      "##ight": 7358,
      "##ade": 7359,
      "more": 7360,
      "15": 7361,
      "##ime": 7362,
      "particip": 7363,
      "##ulation": 7364,
      "##atives": 7365,
      "projet": 7366,
      "##ood": 7367,
      "Stat": 7368,
      "##ax": 7369,
      "##ory": 7370,
      "##minist": 7371,
      "fon": 7372,
      "##lec": 7373,
      "It": 7374,
      "adop": 7375,
      "rev": 7376,
      "Reg": 7377,
      "would": 7378,
      "employ": 7379,
      "##cil": 7380,
      "##sible": 7381,
      "main": 7382,
      "includ": 7383,
      "2004": 7384,
      "##led": 7385,
      "##ident": 7386,
      "##ating": 7387,
      "##ights": 7388,
      "Min": 7389,
      "##etw": 7390,
      "Conseil": 7391,
      "nec": 7392,
      "sit": 7393,
      "general": 7394,
      "##bre": 7395,
      "##ouvernement": 7396,
      "exam": 7397,
      "Ag": 7398,
      "##TI": 7399,
      "contrib": 7400,
      "programme": 7401,
      "prev": 7402,
      "nu": 7403,
      "up": 7404,
      "##ourn": 7405,
      "##ables": 7406,
      "new": 7407,
      "ins": 7408,
      "certain": 7409,
      "##up": 7410,
      "consider": 7411,
      "##insi": 7412,
      "vis": 7413,
      "donne": 7414,
      "##act": 7415,
      "such": 7416,
      "##oute": 7417,
      "ph": 7418,
      "eval": 7419,
      "inf": 7420,
      "rapport": 7421,
      "droits": 7422,
      "Committee": 7423,
      "##ks": 7424,
      "##ov": 7425,
      "Ad": 7426,
      "##ee": 7427,
      "princip": 7428,
      "article": 7429,
      "peri": 7430,
      "respec": 7431,
      "##lique": 7432,
      "iss": 7433,
      "Coun": 7434,
      "##orts": 7435,
      "deux": 7436,
      "you": 7437,
      "exper": 7438,
      "represent": 7439,
      "offic": 7440,
      "differ": 7441,
      "sign": 7442,
      "Or": 7443,
      "there": 7444,
      "organis": 7445,
      "2007": 7446,
      "##oci": 7447,
      "##agement": 7448,
      "Pres": 7449,
      "Ex": 7450,
      "recomm": 7451,
      "med": 7452,
      "inv": 7453,
      "##leg": 7454,
      "paragra": 7455,
      "##ivers": 7456,
      "##dust": 7457,
      "cor": 7458,
      "##ER": 7459,
      "had": 7460,
      "Secret": 7461,
      "##arge": 7462,
      "objec": 7463,
      "States": 7464,
      "This": 7465,
      "2003": 7466,
      "##teurs": 7467,
      "##ets": 7468,
      "loc": 7469,
      "vous": 7470,
      "but": 7471,
      "##rie": 7472,
      "##tis": 7473,
      "##uis": 7474,
      "##AN": 7475,
      "ainsi": 7476,
      "##ally": 7477,
      "peut": 7478,
      "prom": 7479,
      "provid": 7480,
      "Council": 7481,
      "##tra": 7482,
      "resul": 7483,
      "may": 7484,
      "rem": 7485,
      "Res": 7486,
      "development": 7487,
      "##ran": 7488,
      "enc": 7489,
      "session": 7490,
      "pra": 7491,
      "need": 7492,
      "strateg": 7493,
      "any": 7494,
      "##rough": 7495,
      "Gener": 7496,
      "##sement": 7497,
      "##aine": 7498,
      "group": 7499,
      "proced": 7500,
      "initi": 7501,
      "dom": 7502,
      "nombre": 7503,
      "##ats": 7504,
      "bien": 7505,
      "leurs": 7506,
      "dur": 7507,
      "2002": 7508,
      "13": 7509,
      "qual": 7510,
      "Rep": 7511,
      "prof": 7512,
      "one": 7513,
      "He": 7514,
      "dispos": 7515,
      "##pend": 7516,
      "tous": 7517,
      "##aci": 7518,
      "resolution": 7519,
      "##mm": 7520,
      "utilis": 7521,
      "##ature": 7522,
      "##ouv": 7523,
      "##atif": 7524,
      "Canadian": 7525,
      "No": 7526,
      "We": 7527,
      "##til": 7528,
      "suiv": 7529,
      "##mbre": 7530,
      "##fication": 7531,
      "18": 7532,
      "General": 7533,
      "##part": 7534,
      "necess": 7535,
      "##air": 7536,
      "administ": 7537,
      "protection": 7538,
      "Ne": 7539,
      "they": 7540,
      "institu": 7541,
      "egalement": 7542,
      "##endre": 7543,
      "2001": 7544,
      "##sibil": 7545,
      "##ationale": 7546,
      "Convention": 7547,
      "canad": 7548,
      "coop": 7549,
      "mais": 7550,
      "##EN": 7551,
      "than": 7552,
      "Dec": 7553,
      "over": 7554,
      "ref": 7555,
      "accord": 7556,
      "##ural": 7557,
      "faire": 7558,
      "##eder": 7559,
      "##ges": 7560,
      "##ines": 7561,
      "require": 7562,
      "##hip": 7563,
      "14": 7564,
      "##ollow": 7565,
      "these": 7566,
      "human": 7567,
      "elle": 7568,
      "000": 7569,
      "use": 7570,
      "Program": 7571,
      "##ied": 7572,
      "redu": 7573,
      "question": 7574,
      "sante": 7575,
      "##ode": 7576,
      "##tique": 7577,
      "##ties": 7578,
      "jus": 7579,
      "##een": 7580,
      "deter": 7581,
      "ris": 7582,
      "##mple": 7583,
      "##ast": 7584,
      "2000": 7585,
      "contro": 7586,
      "vi": 7587,
      "30": 7588,
      "europe": 7589,
      "##reat": 7590,
      "##ta": 7591,
      "##ass": 7592,
      "##abor": 7593,
      "special": 7594,
      "##ions": 7595,
      "pop": 7596,
      "Mar": 7597,
      "##ctions": 7598,
      "Assemb": 7599,
      "##aut": 7600,
      "cad": 7601,
      "Comite": 7602,
      "securite": 7603,
      "##uer": 7604,
      "ann": 7605,
      "je": 7606,
      "application": 7607,
      "meme": 7608,
      "##itions": 7609,
      "##onment": 7610,
      "report": 7611,
      "##ards": 7612,
      "membres": 7613,
      "##rait": 7614,
      "European": 7615,
      "demande": 7616,
      "canadien": 7617,
      "polic": 7618,
      "service": 7619,
      "programmes": 7620,
      "##etween": 7621,
      "enf": 7622,
      "UN": 7623,
      "gt": 7624,
      "rece": 7625,
      "important": 7626,
      "inves": 7627,
      "##irst": 7628,
      "##titu": 7629,
      "##ject": 7630,
      "off": 7631,
      "ju": 7632,
      "##ke": 7633,
      "proble": 7634,
      "##earch": 7635,
      "##eres": 7636,
      "countries": 7637,
      "id": 7638,
      "##ilit": 7639,
      "##roupe": 7640,
      "##als": 7641,
      "##ulture": 7642,
      "Off": 7643,
      "comple": 7644,
      "conc": 7645,
      "Mr": 7646,
      "activites": 7647,
      "between": 7648,
      "##ris": 7649,
      "follow": 7650,
      "through": 7651,
      "place": 7652,
      "sous": 7653,
      "determin": 7654,
      "##ron": 7655,
      "16": 7656,
      "entrepr": 7657,
      "##enne": 7658,
      "time": 7659,
      "##ament": 7660,
      "Servic": 7661,
      "##ule": 7662,
      "indust": 7663,
      "into": 7664,
      "mati": 7665,
      "##lan": 7666,
      "support": 7667,
      "social": 7668,
      "Af": 7669,
      "##rimin": 7670,
      "##lig": 7671,
      "real": 7672,
      "fourn": 7673,
      "##sions": 7674,
      "decl": 7675,
      "ve": 7676,
      "contre": 7677,
      "prem": 7678,
      "level": 7679,
      "##une": 7680,
      "##ior": 7681,
      "##ound": 7682,
      "occ": 7683,
      "eng": 7684,
      "##nes": 7685,
      "aus": 7686,
      "droit": 7687,
      "##sie": 7688,
      "commer": 7689,
      "sp": 7690,
      "long": 7691,
      "##oire": 7692,
      "##ports": 7693,
      "tro": 7694,
      "ils": 7695,
      "Au": 7696,
      "gouvernement": 7697,
      "##tice": 7698,
      "##lar": 7699,
      "der": 7700,
      "deb": 7701,
      "fem": 7702,
      "##ish": 7703,
      "educ": 7704,
      "gra": 7705,
      "##udget": 7706,
      "li": 7707,
      "ten": 7708,
      "including": 7709,
      "##ization": 7710,
      "President": 7711,
      "##iel": 7712,
      "##ency": 7713,
      "##iste": 7714,
      "gestion": 7715,
      "sc": 7716,
      "dont": 7717,
      "action": 7718,
      "who": 7719,
      "##ditions": 7720,
      "incre": 7721,
      "##orte": 7722,
      "##ude": 7723,
      "bene": 7724,
      "men": 7725,
      "point": 7726,
      "cadre": 7727,
      "##olu": 7728,
      "direc": 7729,
      "mesures": 7730,
      "aussi": 7731,
      "##thor": 7732,
      "temp": 7733,
      "##tor": 7734,
      "##cid": 7735,
      "system": 7736,
      "recher": 7737,
      "cours": 7738,
      "00": 7739,
      "identi": 7740,
      "cooperation": 7741,
      "17": 7742,
      "##omen": 7743,
      "##istance": 7744,
      "##onnement": 7745,
      "cour": 7746,
      "##ner": 7747,
      "ques": 7748,
      "made": 7749,
      "rele": 7750,
      "mill": 7751,
      "##ablish": 7752,
      "questions": 7753,
      "health": 7754,
      "ress": 7755,
      "must": 7756,
      "fam": 7757,
      "##ublic": 7758,
      "lim": 7759,
      "permet": 7760,
      "doit": 7761,
      "hel": 7762,
      "Se": 7763,
      "##ings": 7764,
      "personnes": 7765,
      "our": 7766,
      "25": 7767,
      "##ft": 7768,
      "ens": 7769,
      "lie": 7770,
      "##itre": 7771,
      "##eting": 7772,
      "prior": 7773,
      "2008": 7774,
      "document": 7775,
      "tw": 7776,
      "rights": 7777,
      "##....": 7778,
      "Unies": 7779,
      "fra": 7780,
      "anal": 7781,
      "che": 7782,
      "##aj": 7783,
      "##forme": 7784,
      "##urr": 7785,
      "##ince": 7786,
      "21": 7787,
      "fonction": 7788,
      "##isl": 7789,
      "defin": 7790,
      "##ok": 7791,
      "Union": 7792,
      "Minister": 7793,
      "##dre": 7794,
      "##amment": 7795,
      "Organ": 7796,
      "ori": 7797,
      "Dire": 7798,
      "child": 7799,
      "tot": 7800,
      "effic": 7801,
      "##tifs": 7802,
      "nive": 7803,
      "consult": 7804,
      "##arm": 7805,
      "well": 7806,
      "situation": 7807,
      "Intern": 7808,
      "val": 7809,
      "technolog": 7810,
      "##oth": 7811,
      "##cri": 7812,
      "Des": 7813,
      "Man": 7814,
      "high": 7815,
      "##erc": 7816,
      "##ption": 7817,
      "amp": 7818,
      "##tives": 7819,
      "##tention": 7820,
      "##ariat": 7821,
      "##fore": 7822,
      "att": 7823,
      "mise": 7824,
      "establish": 7825,
      "lors": 7826,
      "##ateurs": 7827,
      "Dans": 7828,
      "ess": 7829,
      "##tiques": 7830,
      "##ved": 7831,
      "##ack": 7832,
      "only": 7833,
      "##ix": 7834,
      "##land": 7835,
      "##lementation": 7836,
      "##IC": 7837,
      "shall": 7838,
      "##man": 7839,
      "##tit": 7840,
      "those": 7841,
      "##iter": 7842,
      "def": 7843,
      "meas": 7844,
      "add": 7845,
      "integ": 7846,
      "##mission": 7847,
      "matiere": 7848,
      "partie": 7849,
      "##atis": 7850,
      "elect": 7851,
      "##old": 7852,
      "##ieme": 7853,
      "##pri": 7854,
      "viol": 7855,
      "198": 7856,
      "afin": 7857,
      "nor": 7858,
      "##lee": 7859,
      "Wh": 7860,
      "ci": 7861,
      "cha": 7862,
      "change": 7863,
      "##now": 7864,
      "some": 7865,
      "if": 7866,
      "##clu": 7867,
      "legisl": 7868,
      "conditions": 7869,
      "Ap": 7870,
      "respon": 7871,
      "feder": 7872,
      "##ession": 7873,
      "##ivid": 7874,
      "##ety": 7875,
      "ty": 7876,
      "role": 7877,
      "##oss": 7878,
      "law": 7879,
      "evaluation": 7880,
      "conn": 7881,
      "##uvre": 7882,
      "donnees": 7883,
      "##iers": 7884,
      "Act": 7885,
      "soit": 7886,
      "Cent": 7887,
      "##tement": 7888,
      "cli": 7889,
      "##ning": 7890,
      "Pour": 7891,
      "moy": 7892,
      "pai": 7893,
      "acces": 7894,
      "assur": 7895,
      "inst": 7896,
      "##uses": 7897,
      "International": 7898,
      "##IN": 7899,
      "fond": 7900,
      "##ople": 7901,
      "pen": 7902,
      "##ination": 7903,
      "autor": 7904,
      "##antes": 7905,
      "contra": 7906,
      "autre": 7907,
      "##entes": 7908,
      "##ones": 7909,
      "etait": 7910,
      "avant": 7911,
      "inde": 7912,
      "about": 7913,
      "particular": 7914,
      "respons": 7915,
      "efforts": 7916,
      "##men": 7917,
      "##AR": 7918,
      "ret": 7919,
      "apres": 7920,
      "##cture": 7921,
      "parties": 7922,
      "##ital": 7923,
      "hom": 7924,
      "##ral": 7925,
      "nouvel": 7926,
      "budget": 7927,
      "##ees": 7928,
      "##ivent": 7929,
      "##istre": 7930,
      "##aines": 7931,
      "Commun": 7932,
      "imm": 7933,
      "respect": 7934,
      "gu": 7935,
      "compte": 7936,
      "communic": 7937,
      "bec": 7938,
      "##red": 7939,
      "obs": 7940,
      "possible": 7941,
      "##ches": 7942,
      "actu": 7943,
      "number": 7944,
      "indic": 7945,
      "##site": 7946,
      "Rec": 7947,
      "fund": 7948,
      "two": 7949,
      "##orld": 7950,
      "##lle": 7951,
      "##elon": 7952,
      "recherche": 7953,
      "##EC": 7954,
      "author": 7955,
      "oblig": 7956,
      "##erg": 7957,
      "sans": 7958,
      "##uel": 7959,
      "education": 7960,
      "nouve": 7961,
      "activities": 7962,
      "24": 7963,
      "neg": 7964,
      "##TION": 7965,
      "det": 7966,
      "regul": 7967,
      "where": 7968,
      "##ized": 7969,
      "concernant": 7970,
      "##phe": 7971,
      "lang": 7972,
      "##pte": 7973,
      "##vant": 7974,
      "systeme": 7975,
      "indi": 7976,
      "22": 7977,
      "years": 7978,
      "meeting": 7979,
      "ech": 7980,
      "exe": 7981,
      "Tra": 7982,
      "##iser": 7983,
      "date": 7984,
      "##ata": 7985,
      "meth": 7986,
      "Government": 7987,
      "produc": 7988,
      "##sive": 7989,
      "State": 7990,
      "jour": 7991,
      "within": 7992,
      "##IS": 7993,
      "vari": 7994,
      "environnement": 7995,
      "##ules": 7996,
      "prog": 7997,
      "femmes": 7998,
      "##lob": 7999,
      "produits": 8000,
      "##aff": 8001,
      "end": 8002,
      "##quer": 8003,
      "31": 8004,
      "##OR": 8005,
      "mark": 8006,
      "##xt": 8007,
      "see": 8008,
      "##ability": 8009,
      "politique": 8010,
      "provide": 8011,
      "traite": 8012,
      "ressources": 8013,
      "dra": 8014,
      "##az": 8015,
      "mater": 8016,
      "Cont": 8017,
      "Develop": 8018,
      "again": 8019,
      "##abilite": 8020,
      "Pre": 8021,
      "enfants": 8022,
      "pay": 8023,
      "financi": 8024,
      "associ": 8025,
      "period": 8026,
      "##lu": 8027,
      "rais": 8028,
      "lib": 8029,
      "instru": 8030,
      "##wn": 8031,
      "ans": 8032,
      "base": 8033,
      "##cle": 8034,
      "modi": 8035,
      "set": 8036,
      "##pl": 8037,
      "23": 8038,
      "##tien": 8039,
      "government": 8040,
      "1999": 8041,
      "first": 8042,
      "his": 8043,
      "civ": 8044,
      "Article": 8045,
      "Ce": 8046,
      "##iens": 8047,
      "##iness": 8048,
      "##ww": 8049,
      "individ": 8050,
      "supp": 8051,
      "##cal": 8052,
      "##uvent": 8053,
      "##aking": 8054,
      "Inter": 8055,
      "Cour": 8056,
      "cal": 8057,
      "territ": 8058,
      "Is": 8059,
      "amel": 8060,
      "##anti": 8061,
      "##ureau": 8062,
      "toute": 8063,
      "peuvent": 8064,
      "www": 8065,
      "##ely": 8066,
      "dist": 8067,
      "At": 8068,
      "contribu": 8069,
      "##ains": 8070,
      "##sequ": 8071,
      "##irc": 8072,
      "New": 8073,
      "toutes": 8074,
      "people": 8075,
      "af": 8076,
      "population": 8077,
      "your": 8078,
      "maj": 8079,
      "Conference": 8080,
      "notamment": 8081,
      "##ining": 8082,
      "them": 8083,
      "coord": 8084,
      "order": 8085,
      "politiques": 8086,
      "Office": 8087,
      "##ful": 8088,
      "site": 8089,
      "##gin": 8090,
      "demand": 8091,
      "jur": 8092,
      "addition": 8093,
      "niveau": 8094,
      "mont": 8095,
      "##seigne": 8096,
      "##ious": 8097,
      "Co": 8098,
      "##io": 8099,
      "##aiss": 8100,
      "##ters": 8101,
      "generale": 8102,
      "bes": 8103,
      "del": 8104,
      "Pol": 8105,
      "collec": 8106,
      "plu": 8107,
      "##UR": 8108,
      "Je": 8109,
      "doivent": 8110,
      "bo": 8111,
      "##mit": 8112,
      "moins": 8113,
      "policy": 8114,
      "##xe": 8115,
      "famil": 8116,
      "##ete": 8117,
      "Nous": 8118,
      "##urther": 8119,
      "DE": 8120,
      "resultat": 8121,
      "when": 8122,
      "esti": 8123,
      "##umer": 8124,
      "women": 8125,
      "don": 8126,
      "presente": 8127,
      "ht": 8128,
      "##usiness": 8129,
      "##AL": 8130,
      "institutions": 8131,
      "besoin": 8132,
      "##seignements": 8133,
      "paragraph": 8134,
      "##owe": 8135,
      "Fin": 8136,
      "environment": 8137,
      "nature": 8138,
      "pouv": 8139,
      "management": 8140,
      "##itation": 8141,
      "mul": 8142,
      "provision": 8143,
      "personnel": 8144,
      "##vis": 8145,
      "bu": 8146,
      "avoir": 8147,
      "deleg": 8148,
      "Health": 8149,
      "regard": 8150,
      "comb": 8151,
      "Programme": 8152,
      "internationale": 8153,
      "##ario": 8154,
      "total": 8155,
      "impro": 8156,
      "##ential": 8157,
      "sci": 8158,
      "mod": 8159,
      "trois": 8160,
      "ful": 8161,
      "##ribun": 8162,
      "processus": 8163,
      "based": 8164,
      "following": 8165,
      "##edi": 8166,
      "used": 8167,
      "II": 8168,
      "Bo": 8169,
      "##dic": 8170,
      "prop": 8171,
      "dern": 8172,
      "##isme": 8173,
      "direct": 8174,
      "production": 8175,
      "being": 8176,
      "avail": 8177,
      "CO": 8178,
      "ach": 8179,
      "amelior": 8180,
      "gro": 8181,
      "research": 8182,
      "##--": 8183,
      "##partment": 8184,
      "cro": 8185,
      "##rodu": 8186,
      "prec": 8187,
      "##acter": 8188,
      "ent": 8189,
      "most": 8190,
      "paragraphe": 8191,
      "##reg": 8192,
      "##aboration": 8193,
      "recommend": 8194,
      "sol": 8195,
      "stru": 8196,
      "minister": 8197,
      "vol": 8198,
      "know": 8199,
      "discus": 8200,
      "cou": 8201,
      "##ism": 8202,
      "tax": 8203,
      "provided": 8204,
      "##IT": 8205,
      "##otre": 8206,
      "mondi": 8207,
      "country": 8208,
      "assistance": 8209,
      "vue": 8210,
      "##ieur": 8211,
      "against": 8212,
      "##ership": 8213,
      "could": 8214,
      "ur": 8215,
      "homme": 8216,
      "Ont": 8217,
      "issues": 8218,
      "economic": 8219,
      "review": 8220,
      "26": 8221,
      "##graph": 8222,
      "stand": 8223,
      "provin": 8224,
      "##owever": 8225,
      "ensure": 8226,
      "compet": 8227,
      "regional": 8228,
      "documents": 8229,
      "design": 8230,
      "dol": 8231,
      "gar": 8232,
      "etab": 8233,
      "promo": 8234,
      "Tr": 8235,
      "##urrent": 8236,
      "reun": 8237,
      "##ieres": 8238,
      "28": 8239,
      "agree": 8240,
      "participation": 8241,
      "##ateur": 8242,
      "cri": 8243,
      "Que": 8244,
      "dollar": 8245,
      "avait": 8246,
      "exerc": 8247,
      "profession": 8248,
      "person": 8249,
      "europeenne": 8250,
      "formation": 8251,
      "Rap": 8252,
      "##omp": 8253,
      "disp": 8254,
      "pur": 8255,
      "Acc": 8256,
      "organiz": 8257,
      "##CE": 8258,
      "aide": 8259,
      "29": 8260,
      "economique": 8261,
      "fut": 8262,
      "##rer": 8263,
      "measures": 8264,
      "##ror": 8265,
      "##ool": 8266,
      "##ense": 8267,
      "##oles": 8268,
      "##enses": 8269,
      "identif": 8270,
      "specific": 8271,
      "implementation": 8272,
      "27": 8273,
      "Amer": 8274,
      "##vement": 8275,
      "Te": 8276,
      "reques": 8277,
      "both": 8278,
      "exec": 8279,
      "##idence": 8280,
      "children": 8281,
      "##ium": 8282,
      "culture": 8283,
      "##ased": 8284,
      "access": 8285,
      "Ontario": 8286,
      "major": 8287,
      "##ler": 8288,
      "suc": 8289,
      "National": 8290,
      "50": 8291,
      "##endant": 8292,
      "##vent": 8293,
      "##ource": 8294,
      "during": 8295,
      "renseignements": 8296,
      "prac": 8297,
      "mand": 8298,
      "address": 8299,
      "Loi": 8300,
      "etablis": 8301,
      "tres": 8302,
      "renfor": 8303,
      "cel": 8304,
      "encour": 8305,
      "Ac": 8306,
      "##ancement": 8307,
      "##dit": 8308,
      "##ber": 8309,
      "data": 8310,
      "Member": 8311,
      "##cept": 8312,
      "IN": 8313,
      "grand": 8314,
      "##ification": 8315,
      "char": 8316,
      "##pose": 8317,
      "Development": 8318,
      "constitu": 8319,
      "##lection": 8320,
      "œuvre": 8321,
      "##aute": 8322,
      "##limin": 8323,
      "annee": 8324,
      "subst": 8325,
      "resultats": 8326,
      "section": 8327,
      "financial": 8328,
      "##ey": 8329,
      "each": 8330,
      "##ctob": 8331,
      "capac": 8332,
      "appli": 8333,
      "##erve": 8334,
      "pass": 8335,
      "available": 8336,
      "##ick": 8337,
      "transport": 8338,
      "##ough": 8339,
      "##acite": 8340,
      "coll": 8341,
      "sal": 8342,
      "declar": 8343,
      "##very": 8344,
      "assess": 8345,
      "good": 8346,
      "lead": 8347,
      "##raient": 8348,
      "bel": 8349,
      "Gu": 8350,
      "cle": 8351,
      "observ": 8352,
      "temps": 8353,
      "loi": 8354,
      "##ued": 8355,
      "second": 8356,
      "Ec": 8357,
      "##ocra": 8358,
      "cet": 8359,
      "##ug": 8360,
      "take": 8361,
      "glob": 8362,
      "##AT": 8363,
      "make": 8364,
      "continue": 8365,
      "examen": 8366,
      "##bles": 8367,
      "operations": 8368,
      "mil": 8369,
      "importance": 8370,
      "##ause": 8371,
      "Centre": 8372,
      "vie": 8373,
      "selon": 8374,
      "##yn": 8375,
      "dollars": 8376,
      "##ame": 8377,
      "##aken": 8378,
      "affec": 8379,
      "mesure": 8380,
      "elles": 8381,
      "##ograph": 8382,
      "circ": 8383,
      "sera": 8384,
      "secteur": 8385,
      "Col": 8386,
      "Assembly": 8387,
      "##own": 8388,
      "trou": 8389,
      "##bec": 8390,
      "##iment": 8391,
      "100": 8392,
      "members": 8393,
      "##ind": 8394,
      "Ab": 8395,
      "##urn": 8396,
      "##ger": 8397,
      "##mis": 8398,
      "01": 8399,
      "##ribunal": 8400,
      "##pecial": 8401,
      "##voir": 8402,
      "case": 8403,
      "charge": 8404,
      "##ulations": 8405,
      "##ience": 8406,
      "lo": 8407,
      "note": 8408,
      "diffic": 8409,
      "reglement": 8410,
      "vo": 8411,
      "##alite": 8412,
      "areas": 8413,
      "##loy": 8414,
      "pot": 8415,
      "resources": 8416,
      "fil": 8417,
      "appropri": 8418,
      "aid": 8419,
      "mal": 8420,
      "view": 8421,
      "##iver": 8422,
      "bi": 8423,
      "Assemblee": 8424,
      "##semble": 8425,
      "state": 8426,
      "method": 8427,
      "##ager": 8428,
      "federal": 8429,
      "##sieurs": 8430,
      "surve": 8431,
      "current": 8432,
      "related": 8433,
      "##ath": 8434,
      "tou": 8435,
      "explo": 8436,
      "security": 8437,
      "##AC": 8438,
      "port": 8439,
      "obten": 8440,
      "lui": 8441,
      "##ared": 8442,
      "124": 8443,
      "commit": 8444,
      "right": 8445,
      "exig": 8446,
      "enti": 8447,
      "Service": 8448,
      "lieu": 8449,
      "administra": 8450,
      "Group": 8451,
      "##formation": 8452,
      "1998": 8453,
      "invol": 8454,
      "ON": 8455,
      "organisations": 8456,
      "her": 8457,
      "relations": 8458,
      "groupe": 8459,
      "concerne": 8460,
      "community": 8461,
      "conte": 8462,
      "mission": 8463,
      "##elf": 8464,
      "prepar": 8465,
      "local": 8466,
      "##dies": 8467,
      "agric": 8468,
      "discrimin": 8469,
      "stat": 8470,
      "Une": 8471,
      "##ving": 8472,
      "##udes": 8473,
      "vale": 8474,
      "##ck": 8475,
      "votre": 8476,
      "periode": 8477,
      "fact": 8478,
      "atte": 8479,
      "notre": 8480,
      "civil": 8481,
      "compris": 8482,
      "further": 8483,
      "Public": 8484,
      "rest": 8485,
      "many": 8486,
      "##ank": 8487,
      "##val": 8488,
      "business": 8489,
      "##abit": 8490,
      "sen": 8491,
      "##gment": 8492,
      "reven": 8493,
      "##tical": 8494,
      "sus": 8495,
      "titre": 8496,
      "consequ": 8497,
      "Cette": 8498,
      "after": 8499,
      "##cription": 8500,
      "effective": 8501,
      "help": 8502,
      "##ront": 8503,
      "##ower": 8504,
      "mat": 8505,
      "##formement": 8506,
      "decisions": 8507,
      "##tim": 8508,
      "perform": 8509,
      "##ink": 8510,
      "Envir": 8511,
      "Quebec": 8512,
      "energ": 8513,
      "assurer": 8514,
      "##toc": 8515,
      "##ID": 8516,
      "sm": 8517,
      "projets": 8518,
      "##hic": 8519,
      "Services": 8520,
      "individual": 8521,
      "poin": 8522,
      "legislation": 8523,
      "##gth": 8524,
      "chaque": 8525,
      "conv": 8526,
      "facon": 8527,
      "fav": 8528,
      "milit": 8529,
      "##portun": 8530,
      "##gn": 8531,
      "same": 8532,
      "##AD": 8533,
      "##ultural": 8534,
      "entreprises": 8535,
      "ple": 8536,
      "##work": 8537,
      "Si": 8538,
      "Mon": 8539,
      "Groupe": 8540,
      "constru": 8541,
      "##atory": 8542,
      "##isee": 8543,
      "##fs": 8544,
      "##action": 8545,
      "Bureau": 8546,
      "40": 8547,
      "aur": 8548,
      "age": 8549,
      "fre": 8550,
      "control": 8551,
      "organizations": 8552,
      "parten": 8553,
      "##olutions": 8554,
      "##era": 8555,
      "##ationaux": 8556,
      "##uring": 8557,
      "utilisation": 8558,
      "##dement": 8559,
      "Organisation": 8560,
      "##vely": 8561,
      "suff": 8562,
      "auc": 8563,
      "##lish": 8564,
      "To": 8565,
      "##ection": 8566,
      "##arly": 8567,
      "Trans": 8568,
      "training": 8569,
      "##omb": 8570,
      "priv": 8571,
      "##ether": 8572,
      "signific": 8573,
      "care": 8574,
      "##agne": 8575,
      "infra": 8576,
      "sex": 8577,
      "very": 8578,
      "procedures": 8579,
      "sch": 8580,
      "benef": 8581,
      "particulier": 8582,
      "large": 8583,
      "distrib": 8584,
      "##andid": 8585,
      "giv": 8586,
      "procedure": 8587,
      "##uman": 8588,
      "##cing": 8589,
      "##cent": 8590,
      "##lace": 8591,
      "Plan": 8592,
      "##ATION": 8593,
      "##ield": 8594,
      "terror": 8595,
      "marche": 8596,
      "CE": 8597,
      "three": 8598,
      "Work": 8599,
      "stud": 8600,
      "dispositions": 8601,
      "administration": 8602,
      "conclu": 8603,
      "go": 8604,
      "##tp": 8605,
      "##atisf": 8606,
      "emploi": 8607,
      "##ateg": 8608,
      "##ENT": 8609,
      "area": 8610,
      "##tees": 8611,
      "project": 8612,
      "type": 8613,
      "##yant": 8614,
      "jud": 8615,
      "##otel": 8616,
      "ensemble": 8617,
      "##nel": 8618,
      "liv": 8619,
      "Secur": 8620,
      "##rang": 8621,
      "##co": 8622,
      "Ces": 8623,
      "##nent": 8624,
      "##ible": 8625,
      "Secretary": 8626,
      "There": 8627,
      "##ories": 8628,
      "before": 8629,
      "independ": 8630,
      "quel": 8631,
      "##isees": 8632,
      "domaine": 8633,
      "mettre": 8634,
      "annees": 8635,
      "##aid": 8636,
      "six": 8637,
      "initiatives": 8638,
      "Board": 8639,
      "required": 8640,
      "egard": 8641,
      "recommand": 8642,
      "personne": 8643,
      "repor": 8644,
      "hist": 8645,
      "##utes": 8646,
      "relative": 8647,
      "exist": 8648,
      "##liament": 8649,
      "position": 8650,
      "Dis": 8651,
      "60": 8652,
      "devrait": 8653,
      "Am": 8654,
      "##aces": 8655,
      "candid": 8656,
      "acqu": 8657,
      "organismes": 8658,
      "achie": 8659,
      "qualite": 8660,
      "inte": 8661,
      "Comp": 8662,
      "hy": 8663,
      "million": 8664,
      "informations": 8665,
      "transfer": 8666,
      "serv": 8667,
      "elements": 8668,
      "controle": 8669,
      "divers": 8670,
      "publique": 8671,
      "even": 8672,
      "App": 8673,
      "objectifs": 8674,
      "util": 8675,
      "operation": 8676,
      "world": 8677,
      "mainten": 8678,
      "possibil": 8679,
      "##ctor": 8680,
      "##ivision": 8681,
      "effect": 8682,
      "##tent": 8683,
      "sector": 8684,
      "##tant": 8685,
      "ro": 8686,
      "refer": 8687,
      "Per": 8688,
      "allow": 8689,
      "##anges": 8690,
      "##net": 8691,
      "aw": 8692,
      "Cor": 8693,
      "encore": 8694,
      "exemple": 8695,
      "communication": 8696,
      "##och": 8697,
      "##ommes": 8698,
      "##irm": 8699,
      "##itor": 8700,
      "Pr": 8701,
      "certains": 8702,
      "http": 8703,
      "##ieux": 8704,
      "##xte": 8705,
      "opportun": 8706,
      "##etes": 8707,
      "tele": 8708,
      "relevant": 8709,
      "Human": 8710,
      "AC": 8711,
      "societe": 8712,
      "Afric": 8713,
      "##ciation": 8714,
      "facilit": 8715,
      "##EM": 8716,
      "##ize": 8717,
      "##ST": 8718,
      "dou": 8719,
      "what": 8720,
      "##uelle": 8721,
      "include": 8722,
      "##mework": 8723,
      "commercial": 8724,
      "market": 8725,
      "analy": 8726,
      "pris": 8727,
      "etaient": 8728,
      "democra": 8729,
      "Inc": 8730,
      "PR": 8731,
      "##jects": 8732,
      "mis": 8733,
      "##hn": 8734,
      "201": 8735,
      "issue": 8736,
      "##ranc": 8737,
      "##ute": 8738,
      "reconn": 8739,
      "##nels": 8740,
      "satisf": 8741,
      "legal": 8742,
      "fois": 8743,
      "taux": 8744,
      "##su": 8745,
      "##rete": 8746,
      "##ross": 8747,
      "##iner": 8748,
      "##atifs": 8749,
      "sujet": 8750,
      "plusieurs": 8751,
      "##unes": 8752,
      "##ogn": 8753,
      "impact": 8754,
      "offer": 8755,
      "##ps": 8756,
      "##af": 8757,
      "##mar": 8758,
      "##ica": 8759,
      "##yl": 8760,
      "##fois": 8761,
      "prendre": 8762,
      "own": 8763,
      "Department": 8764,
      "nationale": 8765,
      "##ird": 8766,
      "abs": 8767,
      "experience": 8768,
      "##ton": 8769,
      "account": 8770,
      "etrang": 8771,
      "detail": 8772,
      "If": 8773,
      "groupes": 8774,
      "61": 8775,
      "So": 8776,
      "air": 8777,
      "lic": 8778,
      "staff": 8779,
      "Ph": 8780,
      "##eter": 8781,
      "esp": 8782,
      "##auv": 8783,
      "##tie": 8784,
      "Ter": 8785,
      "##imum": 8786,
      "adv": 8787,
      "fer": 8788,
      "millions": 8789,
      "##iller": 8790,
      "ordre": 8791,
      "jurid": 8792,
      "##tation": 8793,
      "ord": 8794,
      "02": 8795,
      "vers": 8796,
      "##ception": 8797,
      "hand": 8798,
      "Tribunal": 8799,
      "1997": 8800,
      "##ask": 8801,
      "##enci": 8802,
      "Cl": 8803,
      "##rique": 8804,
      "##ended": 8805,
      "const": 8806,
      "fore": 8807,
      "##sements": 8808,
      "regions": 8809,
      "specif": 8810,
      "nouveau": 8811,
      "appel": 8812,
      "Secretaire": 8813,
      "##ides": 8814,
      "deli": 8815,
      "##till": 8816,
      "approach": 8817,
      "##pes": 8818,
      "vehic": 8819,
      "rad": 8820,
      "categ": 8821,
      "##tig": 8822,
      "##RC": 8823,
      "build": 8824,
      "ep": 8825,
      "##........": 8826,
      "bre": 8827,
      "##agn": 8828,
      "benefic": 8829,
      "different": 8830,
      "ceux": 8831,
      "nos": 8832,
      "Security": 8833,
      "fig": 8834,
      "##ression": 8835,
      "##go": 8836,
      "##ipe": 8837,
      "clas": 8838,
      "paix": 8839,
      "Anne": 8840,
      "##ontre": 8841,
      "discrimination": 8842,
      "Republic": 8843,
      "partn": 8844,
      "inn": 8845,
      "institution": 8846,
      "##unic": 8847,
      "vic": 8848,
      "reference": 8849,
      "conformement": 8850,
      "##oires": 8851,
      "##eti": 8852,
      "electron": 8853,
      "promotion": 8854,
      "lab": 8855,
      "vertu": 8856,
      "saf": 8857,
      "travaux": 8858,
      "tant": 8859,
      "##ah": 8860,
      "##rier": 8861,
      "basis": 8862,
      "appropriate": 8863,
      "maniere": 8864,
      "trade": 8865,
      "visant": 8866,
      "##ticles": 8867,
      "##rength": 8868,
      "##ici": 8869,
      "receiv": 8870,
      "proper": 8871,
      "dece": 8872,
      "force": 8873,
      "ayant": 8874,
      "Aut": 8875,
      "Repub": 8876,
      "197": 8877,
      "Unis": 8878,
      "habit": 8879,
      "fai": 8880,
      "among": 8881,
      "like": 8882,
      "bro": 8883,
      "affaires": 8884,
      "relatives": 8885,
      "Cons": 8886,
      "##airs": 8887,
      "creation": 8888,
      "because": 8889,
      "aspec": 8890,
      "Information": 8891,
      "without": 8892,
      "grande": 8893,
      "##ellement": 8894,
      "donc": 8895,
      "taken": 8896,
      "analys": 8897,
      "does": 8898,
      "mention": 8899,
      "effet": 8900,
      "violence": 8901,
      "modif": 8902,
      "gc": 8903,
      "EU": 8904,
      "how": 8905,
      "Dece": 8906,
      "seu": 8907,
      "ste": 8908,
      "04": 8909,
      "necessary": 8910,
      "result": 8911,
      "perman": 8912,
      "europeen": 8913,
      "organisation": 8914,
      "grow": 8915,
      "Republique": 8916,
      "pendant": 8917,
      "plans": 8918,
      "eau": 8919,
      "##ness": 8920,
      "Rights": 8921,
      "pu": 8922,
      "##cement": 8923,
      "gouver": 8924,
      "##missions": 8925,
      "requirements": 8926,
      "Secretariat": 8927,
      "let": 8928,
      "##art": 8929,
      "water": 8930,
      "draft": 8931,
      "cin": 8932,
      "essenti": 8933,
      "estim": 8934,
      "por": 8935,
      "CN": 8936,
      "##ouse": 8937,
      "December": 8938,
      "Web": 8939,
      "exa": 8940,
      "peace": 8941,
      "##rat": 8942,
      "crit": 8943,
      "gre": 8944,
      "contain": 8945,
      "points": 8946,
      "Parties": 8947,
      "##ture": 8948,
      "##AS": 8949,
      "future": 8950,
      "participants": 8951,
      "moyen": 8952,
      "##enir": 8953,
      "working": 8954,
      "Aff": 8955,
      "nucle": 8956,
      "##uf": 8957,
      "...": 8958,
      "premiere": 8959,
      "##usion": 8960,
      "35": 8961,
      "##nelle": 8962,
      "Agency": 8963,
      "##istes": 8964,
      "Parliament": 8965,
      "nouvelles": 8966,
      "##stand": 8967,
      "2009": 8968,
      "now": 8969,
      "prevention": 8970,
      "pouvoir": 8971,
      "donn": 8972,
      "##RE": 8973,
      "##oms": 8974,
      "needs": 8975,
      "##ife": 8976,
      "##MP": 8977,
      "Ass": 8978,
      "sim": 8979,
      "submit": 8980,
      "##uch": 8981,
      "super": 8982,
      "##ventions": 8983,
      "table": 8984,
      "suite": 8985,
      "##IP": 8986,
      "aer": 8987,
      "decembre": 8988,
      "##ceed": 8989,
      "##rug": 8990,
      "##atique": 8991,
      "Pri": 8992,
      "justice": 8993,
      "seront": 8994,
      "depuis": 8995,
      "global": 8996,
      "##oul": 8997,
      "##oph": 8998,
      "##ja": 8999,
      "##ately": 9000,
      "attention": 9001,
      "sug": 9002,
      "However": 9003,
      "results": 9004,
      "These": 9005,
      "besoins": 9006,
      "##ices": 9007,
      "Asso": 9008,
      "po": 9009,
      "##orth": 9010,
      "treat": 9011,
      "##isting": 9012,
      "Sup": 9013,
      "cause": 9014,
      "##enda": 9015,
      "financement": 9016,
      "##EL": 9017,
      "savoir": 9018,
      "1996": 9019,
      "Sub": 9020,
      "soient": 9021,
      "foc": 9022,
      "established": 9023,
      "Qu": 9024,
      "rapports": 9025,
      "way": 9026,
      "voir": 9027,
      "##view": 9028,
      "remp": 9029,
      "introdu": 9030,
      "##day": 9031,
      "pat": 9032,
      "products": 9033,
      "avons": 9034,
      "##ases": 9035,
      "laqu": 9036,
      "##ock": 9037,
      "##wa": 9038,
      "attein": 9039,
      "laquelle": 9040,
      "political": 9041,
      "03": 9042,
      "##alog": 9043,
      "appar": 9044,
      "##ocht": 9045,
      "reas": 9046,
      "competi": 9047,
      "##vez": 9048,
      "delegation": 9049,
      "##tics": 9050,
      "##tification": 9051,
      "monde": 9052,
      "increase": 9053,
      "##other": 9054,
      "##mi": 9055,
      "scienti": 9056,
      "outre": 9057,
      "groups": 9058,
      "repond": 9059,
      "Char": 9060,
      "##ove": 9061,
      "interes": 9062,
      "held": 9063,
      "June": 9064,
      "##ently": 9065,
      "objet": 9066,
      "equip": 9067,
      "liber": 9068,
      "##ility": 9069,
      "##ented": 9070,
      "Imp": 9071,
      "jusqu": 9072,
      "##rance": 9073,
      "EC": 9074,
      "##ender": 9075,
      "##lor": 9076,
      "##ina": 9077,
      "anti": 9078,
      "br": 9079,
      "compos": 9080,
      "event": 9081,
      "found": 9082,
      "structure": 9083,
      "##pond": 9084,
      "expos": 9085,
      "term": 9086,
      "lut": 9087,
      "##resse": 9088,
      "developing": 9089,
      "##ling": 9090,
      "Environment": 9091,
      "##cipe": 9092,
      "strength": 9093,
      "##com": 9094,
      "##SC": 9095,
      "fix": 9096,
      "etabl": 9097,
      "ide": 9098,
      "secret": 9099,
      "Elle": 9100,
      "##atic": 9101,
      "canadienne": 9102,
      "33": 9103,
      "##ledge": 9104,
      "adopted": 9105,
      "indique": 9106,
      "im": 9107,
      "clai": 9108,
      "compan": 9109,
      "ameliorer": 9110,
      "impos": 9111,
      "reduction": 9112,
      "##ane": 9113,
      "elimin": 9114,
      "risk": 9115,
      "coordination": 9116,
      "mois": 9117,
      "##istan": 9118,
      "##cide": 9119,
      "quat": 9120,
      "cos": 9121,
      "##ening": 9122,
      "since": 9123,
      "problemes": 9124,
      "augment": 9125,
      "compr": 9126,
      "##iversity": 9127,
      "month": 9128,
      "Pe": 9129,
      "interp": 9130,
      "accomp": 9131,
      "whether": 9132,
      "langu": 9133,
      "##tine": 9134,
      "Pl": 9135,
      "tri": 9136,
      "significant": 9137,
      "page": 9138,
      "juin": 9139,
      "recogn": 9140,
      "jeunes": 9141,
      "cases": 9142,
      "initiative": 9143,
      "persons": 9144,
      "means": 9145,
      "provisions": 9146,
      "##ward": 9147,
      "32": 9148,
      "premier": 9149,
      "ite": 9150,
      "accordance": 9151,
      "four": 9152,
      "poursu": 9153,
      "Car": 9154,
      "##ires": 9155,
      "origin": 9156,
      "Econom": 9157,
      "Fe": 9158,
      "dess": 9159,
      "45": 9160,
      "numer": 9161,
      "##venir": 9162,
      "Sh": 9163,
      "##once": 9164,
      "##eth": 9165,
      "Table": 9166,
      "##round": 9167,
      "##ily": 9168,
      "my": 9169,
      "fonds": 9170,
      "govern": 9171,
      "given": 9172,
      "##vision": 9173,
      "condu": 9174,
      "seulement": 9175,
      "fun": 9176,
      "##uations": 9177,
      "while": 9178,
      "obligations": 9179,
      "find": 9180,
      "VI": 9181,
      "May": 9182,
      "##porteur": 9183,
      "necessaire": 9184,
      "##ls": 9185,
      "##read": 9186,
      "##ulaire": 9187,
      "05": 9188,
      "concent": 9189,
      "nouveaux": 9190,
      "prive": 9191,
      "experts": 9192,
      "Internet": 9193,
      "contribution": 9194,
      "actions": 9195,
      "##etwork": 9196,
      "##loc": 9197,
      "quality": 9198,
      "tradition": 9199,
      "avis": 9200,
      "depenses": 9201,
      "clim": 9202,
      "faut": 9203,
      "exercice": 9204,
      "progress": 9205,
      "commerce": 9206,
      "fis": 9207,
      "projects": 9208,
      "innov": 9209,
      "Dep": 9210,
      "police": 9211,
      "dispon": 9212,
      "progres": 9213,
      "puis": 9214,
      "##ology": 9215,
      "extra": 9216,
      "Research": 9217,
      "##rain": 9218,
      "##AP": 9219,
      "##allen": 9220,
      "##ends": 9221,
      "##CT": 9222,
      "consid": 9223,
      "etat": 9224,
      "capacity": 9225,
      "sever": 9226,
      "##ots": 9227,
      "enreg": 9228,
      "##stain": 9229,
      "gen": 9230,
      "investis": 9231,
      "terme": 9232,
      "##ervation": 9233,
      "record": 9234,
      "March": 9235,
      "caracter": 9236,
      "adoption": 9237,
      "full": 9238,
      "less": 9239,
      "##crib": 9240,
      "responsibil": 9241,
      "##ecan": 9242,
      "##oti": 9243,
      "##rael": 9244,
      "##lain": 9245,
      "proposed": 9246,
      "beh": 9247,
      "##LE": 9248,
      "##ians": 9249,
      "engage": 9250,
      "Court": 9251,
      "##hen": 9252,
      "Protoc": 9253,
      "compar": 9254,
      "prep": 9255,
      "Sou": 9256,
      "##issance": 9257,
      "##respond": 9258,
      "mer": 9259,
      "considered": 9260,
      "Mal": 9261,
      "##gl": 9262,
      "adap": 9263,
      "##encies": 9264,
      "##ather": 9265,
      "camp": 9266,
      "framework": 9267,
      "subject": 9268,
      "connaiss": 9269,
      "##pt": 9270,
      "fl": 9271,
      "##inal": 9272,
      "##lles": 9273,
      "party": 9274,
      "norm": 9275,
      "appui": 9276,
      "favor": 9277,
      "##iation": 9278,
      "preced": 9279,
      "jou": 9280,
      "infrastru": 9281,
      "environmental": 9282,
      "example": 9283,
      "##ienne": 9284,
      "valeur": 9285,
      "ministre": 9286,
      "mars": 9287,
      "land": 9288,
      "Jan": 9289,
      "said": 9290,
      "55": 9291,
      "max": 9292,
      "##ying": 9293,
      "aim": 9294,
      "Air": 9295,
      "analyse": 9296,
      "##ators": 9297,
      "small": 9298,
      "##udi": 9299,
      "sustain": 9300,
      "declaration": 9301,
      "Community": 9302,
      "multi": 9303,
      "06": 9304,
      "incid": 9305,
      "nouvelle": 9306,
      "##ator": 9307,
      "export": 9308,
      "##illet": 9309,
      "##be": 9310,
      "##rant": 9311,
      "traitement": 9312,
      "moment": 9313,
      "cop": 9314,
      "Code": 9315,
      "material": 9316,
      "eu": 9317,
      "aj": 9318,
      "##lemen": 9319,
      "urg": 9320,
      "occup": 9321,
      "invest": 9322,
      "conten": 9323,
      "Special": 9324,
      "First": 9325,
      "prix": 9326,
      "##arg": 9327,
      "soutien": 9328,
      "pourrait": 9329,
      "correspond": 9330,
      "##uly": 9331,
      "field": 9332,
      "##ape": 9333,
      "##etter": 9334,
      "systems": 9335,
      "Ot": 9336,
      "victi": 9337,
      "key": 9338,
      "policies": 9339,
      "Direc": 9340,
      "Rus": 9341,
      "meille": 9342,
      "forme": 9343,
      "cover": 9344,
      "Add": 9345,
      "##uve": 9346,
      "Fund": 9347,
      "##cell": 9348,
      "appu": 9349,
      "contributions": 9350,
      "36": 9351,
      "##ochtones": 9352,
      "Gouvernement": 9353,
      "##ME": 9354,
      "##ierement": 9355,
      "official": 9356,
      "corre": 9357,
      "supplement": 9358,
      "##pres": 9359,
      "##ists": 9360,
      "ge": 9361,
      "levels": 9362,
      "World": 9363,
      "adj": 9364,
      "deja": 9365,
      "day": 9366,
      "commission": 9367,
      "focus": 9368,
      "systemes": 9369,
      "##jour": 9370,
      "Parlement": 9371,
      "comment": 9372,
      "rese": 9373,
      "unique": 9374,
      "1995": 9375,
      "every": 9376,
      "##ined": 9377,
      "##alogue": 9378,
      "expec": 9379,
      "##illance": 9380,
      "##ality": 9381,
      "armes": 9382,
      "industri": 9383,
      "install": 9384,
      "Septe": 9385,
      "etude": 9386,
      "certaines": 9387,
      "Association": 9388,
      "reports": 9389,
      "##itaire": 9390,
      "montant": 9391,
      "##tific": 9392,
      "various": 9393,
      "articles": 9394,
      "Mme": 9395,
      "Accord": 9396,
      "enter": 9397,
      "continu": 9398,
      "raison": 9399,
      "positi": 9400,
      "##onst": 9401,
      "final": 9402,
      "instruments": 9403,
      "occas": 9404,
      "aspects": 9405,
      "strategies": 9406,
      "provides": 9407,
      "##cul": 9408,
      "mecan": 9409,
      "Ministere": 9410,
      "technologies": 9411,
      "common": 9412,
      "##met": 9413,
      "concl": 9414,
      "crimin": 9415,
      "ii": 9416,
      "Eng": 9417,
      "collaboration": 9418,
      "conseil": 9419,
      "Sch": 9420,
      "##lies": 9421,
      "did": 9422,
      "Management": 9423,
      "opin": 9424,
      "guid": 9425,
      "##lect": 9426,
      "##ban": 9427,
      "costs": 9428,
      "##tawa": 9429,
      "Report": 9430,
      "internationales": 9431,
      "mig": 9432,
      "90": 9433,
      "##ann": 9434,
      "food": 9435,
      "##ury": 9436,
      "obtenir": 9437,
      "consomm": 9438,
      "tour": 9439,
      "##med": 9440,
      "##osp": 9441,
      "pratiques": 9442,
      "amount": 9443,
      "September": 9444,
      "peti": 9445,
      "Sp": 9446,
      "centre": 9447,
      "##less": 9448,
      "complete": 9449,
      "consideration": 9450,
      "##quel": 9451,
      "sein": 9452,
      "sources": 9453,
      "##ping": 9454,
      "##OC": 9455,
      "##HE": 9456,
      "chez": 9457,
      "Med": 9458,
      "##alf": 9459,
      "##isse": 9460,
      "Ottawa": 9461,
      "41": 9462,
      "programs": 9463,
      "##hib": 9464,
      "All": 9465,
      "##terie": 9466,
      "US": 9467,
      "capital": 9468,
      "##ril": 9469,
      "Jus": 9470,
      "exemp": 9471,
      "Institu": 9472,
      "techniques": 9473,
      "etudes": 9474,
      "Section": 9475,
      "34": 9476,
      "rend": 9477,
      "school": 9478,
      "normes": 9479,
      "##mo": 9480,
      "improve": 9481,
      "cost": 9482,
      "septe": 9483,
      "##issant": 9484,
      "developed": 9485,
      "arri": 9486,
      "amend": 9487,
      "Mo": 9488,
      "##ibles": 9489,
      "AN": 9490,
      "septembre": 9491,
      "Economic": 9492,
      "Ob": 9493,
      "##otes": 9494,
      "Director": 9495,
      "cy": 9496,
      "suppor": 9497,
      "##tices": 9498,
      "success": 9499,
      "agreement": 9500,
      "tes": 9501,
      "devraient": 9502,
      "activite": 9503,
      "industry": 9504,
      "##amp": 9505,
      "necessaires": 9506,
      "##acy": 9507,
      "Social": 9508,
      "OF": 9509,
      "celui": 9510,
      "celle": 9511,
      "univers": 9512,
      "Strateg": 9513,
      "##asing": 9514,
      "communaut": 9515,
      "##naires": 9516,
      "fins": 9517,
      "annexe": 9518,
      "travaille": 9519,
      "Declar": 9520,
      "produit": 9521,
      "minor": 9522,
      "With": 9523,
      "making": 9524,
      "read": 9525,
      "##rehen": 9526,
      "Sur": 9527,
      "monitor": 9528,
      "resid": 9529,
      "Division": 9530,
      "hotel": 9531,
      "##itable": 9532,
      "regime": 9533,
      "vote": 9534,
      "rate": 9535,
      "##lier": 9536,
      "##mploy": 9537,
      "##eria": 9538,
      "##akes": 9539,
      "peu": 9540,
      "member": 9541,
      "##IL": 9542,
      "##ised": 9543,
      "received": 9544,
      "##ze": 9545,
      "##order": 9546,
      "mai": 9547,
      "selection": 9548,
      "##IV": 9549,
      "Apr": 9550,
      "entreprise": 9551,
      "##merg": 9552,
      "risque": 9553,
      "Be": 9554,
      "aupres": 9555,
      "RE": 9556,
      "life": 9557,
      "##quete": 9558,
      "performance": 9559,
      "soins": 9560,
      "France": 9561,
      "##echan": 9562,
      "constit": 9563,
      "above": 9564,
      "technical": 9565,
      "Prem": 9566,
      "##ement": 9567,
      "agre": 9568,
      "terms": 9569,
      "propose": 9570,
      "challen": 9571,
      "Octob": 9572,
      "durable": 9573,
      "##ueur": 9574,
      "##enn": 9575,
      "soul": 9576,
      "##ume": 9577,
      "##rong": 9578,
      "##auc": 9579,
      "July": 9580,
      "chap": 9581,
      "recommandations": 9582,
      "gouverne": 9583,
      "vig": 9584,
      "interest": 9585,
      "forces": 9586,
      "appe": 9587,
      "arg": 9588,
      "##arn": 9589,
      "integration": 9590,
      "##ouvel": 9591,
      "##oup": 9592,
      "etablissement": 9593,
      "##occ": 9594,
      "diver": 9595,
      "Memb": 9596,
      "lt": 9597,
      "line": 9598,
      "##nelles": 9599,
      "franc": 9600,
      "mondiale": 9601,
      "condition": 9602,
      "moyens": 9603,
      "--": 9604,
      "elaboration": 9605,
      "April": 9606,
      "Date": 9607,
      "Agree": 9608,
      "etant": 9609,
      "Part": 9610,
      "consultations": 9611,
      "therefore": 9612,
      "##OP": 9613,
      "Nove": 9614,
      "decide": 9615,
      "reunion": 9616,
      "##line": 9617,
      "Region": 9618,
      "CR": 9619,
      "assessment": 9620,
      "ense": 9621,
      "aliment": 9622,
      "bar": 9623,
      "##aving": 9624,
      "spe": 9625,
      "contract": 9626,
      "show": 9627,
      "##wards": 9628,
      "Ver": 9629,
      "##xes": 9630,
      "tenu": 9631,
      "avaient": 9632,
      "authorities": 9633,
      "examine": 9634,
      "using": 9635,
      "active": 9636,
      "undert": 9637,
      "funding": 9638,
      "org": 9639,
      "prim": 9640,
      "##onds": 9641,
      "employment": 9642,
      "sy": 9643,
      "37": 9644,
      "confl": 9645,
      "ban": 9646,
      "harm": 9647,
      "tran": 9648,
      "October": 9649,
      "##ueil": 9650,
      "Declaration": 9651,
      "purs": 9652,
      "##rid": 9653,
      "emissions": 9654,
      "due": 9655,
      "eleve": 9656,
      "direction": 9657,
      "You": 9658,
      "##mon": 9659,
      "renforcer": 9660,
      "immedi": 9661,
      "souh": 9662,
      "interet": 9663,
      "technique": 9664,
      "lutte": 9665,
      "accep": 9666,
      "##vier": 9667,
      "##way": 9668,
      "##dra": 9669,
      "deg": 9670,
      "credit": 9671,
      "anim": 9672,
      "##aged": 9673,
      "##uant": 9674,
      "domaines": 9675,
      "knowledge": 9676,
      "serait": 9677,
      "##tively": 9678,
      "ouver": 9679,
      "##uary": 9680,
      "moder": 9681,
      "economiques": 9682,
      "Administ": 9683,
      "##hold": 9684,
      "conference": 9685,
      "effets": 9686,
      "##itiz": 9687,
      "##----": 9688,
      "##xic": 9689,
      "November": 9690,
      "42": 9691,
      "##rent": 9692,
      "Jo": 9693,
      "log": 9694,
      "carri": 9695,
      "juillet": 9696,
      "##issent": 9697,
      "emb": 9698,
      "negoci": 9699,
      "industrie": 9700,
      "pros": 9701,
      "##iles": 9702,
      "##han": 9703,
      "etc": 9704,
      "avril": 9705,
      "investig": 9706,
      "exploitation": 9707,
      "face": 9708,
      "sites": 9709,
      "##quent": 9710,
      "depos": 9711,
      "mode": 9712,
      "provincial": 9713,
      "##amb": 9714,
      "oe": 9715,
      "fournir": 9716,
      "##sif": 9717,
      "standards": 9718,
      "aider": 9719,
      "increased": 9720,
      "heures": 9721,
      "additional": 9722,
      "octob": 9723,
      "Indust": 9724,
      "##uit": 9725,
      "celles": 9726,
      "##ufact": 9727,
      "Bel": 9728,
      "##atural": 9729,
      "particularly": 9730,
      "third": 9731,
      "lorsque": 9732,
      "octobre": 9733,
      "CC": 9734,
      "model": 9735,
      "efficace": 9736,
      "sk": 9737,
      "recommendations": 9738,
      "##liance": 9739,
      "Mission": 9740,
      "dialogue": 9741,
      "conflic": 9742,
      "express": 9743,
      "malad": 9744,
      "Other": 9745,
      "private": 9746,
      "value": 9747,
      "dos": 9748,
      "capacite": 9749,
      "simp": 9750,
      "considere": 9751,
      "Israel": 9752,
      "objectif": 9753,
      "##rations": 9754,
      "nove": 9755,
      "cit": 9756,
      "##ieu": 9757,
      "##anger": 9758,
      "construction": 9759,
      "apply": 9760,
      "Syste": 9761,
      "sociale": 9762,
      "They": 9763,
      "1994": 9764,
      "##iale": 9765,
      "Sud": 9766,
      "difficult": 9767,
      "##range": 9768,
      "she": 9769,
      "56": 9770,
      "Indi": 9771,
      "env": 9772,
      "novembre": 9773,
      "fab": 9774,
      "##aw": 9775,
      "##ss": 9776,
      "##tection": 9777,
      "autom": 9778,
      "then": 9779,
      "ONU": 9780,
      "list": 9781,
      "January": 9782,
      "TR": 9783,
      "accept": 9784,
      "tel": 9785,
      "##sh": 9786,
      "Alber": 9787,
      "influ": 9788,
      "38": 9789,
      "##PP": 9790,
      "fais": 9791,
      "simil": 9792,
      "##atisti": 9793,
      "depend": 9794,
      "free": 9795,
      "coun": 9796,
      "##ctures": 9797,
      "liste": 9798,
      "##ght": 9799,
      "##standing": 9800,
      "exclu": 9801,
      "study": 9802,
      "##urer": 9803,
      "##ulg": 9804,
      "post": 9805,
      "##ecu": 9806,
      "intention": 9807,
      "here": 9808,
      "Est": 9809,
      "Law": 9810,
      "##lements": 9811,
      "07": 9812,
      "Her": 9813,
      "##ental": 9814,
      "included": 9815,
      "##alle": 9816,
      "aver": 9817,
      "evidence": 9818,
      "jan": 9819,
      "Docu": 9820,
      "pertin": 9821,
      "communities": 9822,
      "remain": 9823,
      "##dequ": 9824,
      "mechan": 9825,
      "##atiques": 9826,
      "##IR": 9827,
      "##ED": 9828,
      "##dro": 9829,
      "##jours": 9830,
      "##ological": 9831,
      "consultation": 9832,
      "subs": 9833,
      "surveillance": 9834,
      "Nord": 9835,
      "amen": 9836,
      "##side": 9837,
      "alors": 9838,
      "semb": 9839,
      "reserve": 9840,
      "permis": 9841,
      "implemen": 9842,
      "tit": 9843,
      "autorites": 9844,
      "distribution": 9845,
      "##rir": 9846,
      "Polic": 9847,
      "Techn": 9848,
      "##alestin": 9849,
      "mondial": 9850,
      "59": 9851,
      "janvier": 9852,
      "##itaires": 9853,
      "termin": 9854,
      "medic": 9855,
      "##orig": 9856,
      "execu": 9857,
      "agenda": 9858,
      "bil": 9859,
      "depart": 9860,
      "preocc": 9861,
      "##asse": 9862,
      "back": 9863,
      "income": 9864,
      "demandes": 9865,
      "broad": 9866,
      "source": 9867,
      "cela": 9868,
      "Offic": 9869,
      "communaute": 9870,
      "ministere": 9871,
      "maintain": 9872,
      "08": 9873,
      "39": 9874,
      "##TA": 9875,
      "Repres": 9876,
      "adequ": 9877,
      "##onse": 9878,
      "99": 9879,
      "goods": 9880,
      "##avant": 9881,
      "mandat": 9882,
      "95": 9883,
      "frais": 9884,
      "communications": 9885,
      "Afrique": 9886,
      "##aise": 9887,
      "changes": 9888,
      "attrib": 9889,
      "58": 9890,
      "Reglement": 9891,
      "##atoire": 9892,
      "belie": 9893,
      "Chair": 9894,
      "existing": 9895,
      "deuxieme": 9896,
      "mieux": 9897,
      "couts": 9898,
      "ni": 9899,
      "##lam": 9900,
      "types": 9901,
      "web": 9902,
      "entra": 9903,
      "##imes": 9904,
      "##ignement": 9905,
      "croissance": 9906,
      "##aced": 9907,
      "44": 9908,
      "restric": 9909,
      "rules": 9910,
      "nationales": 9911,
      "nav": 9912,
      "##iee": 9913,
      "##acts": 9914,
      "Represent": 9915,
      "constitue": 9916,
      "cher": 9917,
      "representants": 9918,
      "equipe": 9919,
      "family": 9920,
      "mobil": 9921,
      "##unicip": 9922,
      "contact": 9923,
      "##uels": 9924,
      "growth": 9925,
      "san": 9926,
      "last": 9927,
      "Br": 9928,
      "conj": 9929,
      "lesqu": 9930,
      "risques": 9931,
      "building": 9932,
      "##pendant": 9933,
      "concerned": 9934,
      "##cted": 9935,
      "secretariat": 9936,
      "##issement": 9937,
      "1er": 9938,
      "##SE": 9939,
      "employes": 9940,
      "57": 9941,
      "adresse": 9942,
      "clear": 9943,
      "75": 9944,
      "call": 9945,
      "##ouvoir": 9946,
      "Organization": 9947,
      "definition": 9948,
      "Agreement": 9949,
      "70": 9950,
      "clos": 9951,
      "occasion": 9952,
      "autochtones": 9953,
      "better": 9954,
      "##olid": 9955,
      "##aison": 9956,
      "nationaux": 9957,
      "relig": 9958,
      "upon": 9959,
      "Working": 9960,
      "##oix": 9961,
      "##ives": 9962,
      "Bri": 9963,
      "still": 9964,
      "espec": 9965,
      "quatre": 9966,
      "clients": 9967,
      "annual": 9968,
      "den": 9969,
      "request": 9970,
      "down": 9971,
      "property": 9972,
      "open": 9973,
      "51": 9974,
      "##original": 9975,
      "potential": 9976,
      "##aucoup": 9977,
      "toujours": 9978,
      "domes": 9979,
      "promote": 9980,
      "submitted": 9981,
      "comprehen": 9982,
      "1990": 9983,
      "Ge": 9984,
      "hui": 9985,
      "##jourd": 9986,
      "80": 9987,
      "Affairs": 9988,
      "fel": 9989,
      "University": 9990,
      "aucune": 9991,
      "##sibles": 9992,
      "##ik": 9993,
      "concerning": 9994,
      "Lib": 9995,
      "bal": 9996,
      "##rab": 9997,
      "eur": 9998,
      "execution": 9999,
      "##ederation": 10000,
      "transpar": 10001,
      "best": 10002,
      "##tivite": 10003,
      "Su": 10004,
      "CON": 10005,
      "jours": 10006,
      "##lex": 10007,
      "safety": 10008,
      "Govern": 10009,
      "fonde": 10010,
      "prises": 10011,
      "Roy": 10012,
      "##sification": 10013,
      "##rants": 10014,
      "##ody": 10015,
      "##urant": 10016,
      "society": 10017,
      "proposition": 10018,
      "##istry": 10019,
      "limite": 10020,
      "##phone": 10021,
      "deal": 10022,
      "##venant": 10023,
      "enregistre": 10024,
      "##ateral": 10025,
      "play": 10026,
      "Tur": 10027,
      "inspec": 10028,
      "suivi": 10029,
      "ligne": 10030,
      "organization": 10031,
      "technology": 10032,
      "several": 10033,
      "##sed": 10034,
      "conduc": 10035,
      "48": 10036,
      "directive": 10037,
      "Toute": 10038,
      "strategie": 10039,
      "43": 10040,
      "passe": 10041,
      "regles": 10042,
      "pauv": 10043,
      "applique": 10044,
      "##though": 10045,
      "pati": 10046,
      "environ": 10047,
      "orient": 10048,
      "##20": 10049,
      "##inea": 10050,
      "etablir": 10051,
      "49": 10052,
      "Africa": 10053,
      "##llect": 10054,
      "treatment": 10055,
      "march": 10056,
      "responsabilite": 10057,
      "##CC": 10058,
      "employe": 10059,
      "opinion": 10060,
      "ai": 10061,
      "garanti": 10062,
      "pap": 10063,
      "agencies": 10064,
      "##orde": 10065,
      "##ements": 10066,
      "encourage": 10067,
      "ET": 10068,
      "province": 10069,
      "consist": 10070,
      "##come": 10071,
      "Dem": 10072,
      "approu": 10073,
      "##stitution": 10074,
      "##sition": 10075,
      "##ready": 10076,
      "196": 10077,
      "##mment": 10078,
      "vigueur": 10079,
      "cinq": 10080,
      "##wan": 10081,
      "EN": 10082,
      "CF": 10083,
      "centres": 10084,
      "presence": 10085,
      "pratique": 10086,
      "Canadians": 10087,
      "voy": 10088,
      "##OM": 10089,
      "dit": 10090,
      "benefits": 10091,
      "file": 10092,
      "cat": 10093,
      "reason": 10094,
      "objectives": 10095,
      "item": 10096,
      "five": 10097,
      "infrastructure": 10098,
      "##hes": 10099,
      "principes": 10100,
      "Ger": 10101,
      "##ira": 10102,
      "noted": 10103,
      "reserv": 10104,
      "previous": 10105,
      "##ox": 10106,
      "##elines": 10107,
      "energy": 10108,
      "donner": 10109,
      "rapide": 10110,
      "determiner": 10111,
      "angl": 10112,
      "gouvernements": 10113,
      "least": 10114,
      "##arti": 10115,
      "er": 10116,
      "determine": 10117,
      "##tient": 10118,
      "##otal": 10119,
      "problems": 10120,
      "already": 10121,
      "##ivre": 10122,
      "font": 10123,
      "responsible": 10124,
      "head": 10125,
      "agit": 10126,
      "09": 10127,
      "ici": 10128,
      "tend": 10129,
      "North": 10130,
      "Regulations": 10131,
      "Lors": 10132,
      "##illeurs": 10133,
      "porte": 10134,
      "peup": 10135,
      "emerg": 10136,
      "##naire": 10137,
      "membre": 10138,
      "Tor": 10139,
      "citoy": 10140,
      "offici": 10141,
      "##ll": 10142,
      "probleme": 10143,
      "language": 10144,
      "##ension": 10145,
      "##ET": 10146,
      "revenu": 10147,
      "much": 10148,
      "UE": 10149,
      "tre": 10150,
      "populations": 10151,
      "beaucoup": 10152,
      "##gen": 10153,
      "discussion": 10154,
      "Treat": 10155,
      "interieur": 10156,
      "version": 10157,
      "differents": 10158,
      "Aust": 10159,
      "##arian": 10160,
      "nombreux": 10161,
      "Ro": 10162,
      "consul": 10163,
      "tels": 10164,
      "however": 10165,
      "##DI": 10166,
      "##OU": 10167,
      "##ival": 10168,
      "Aboriginal": 10169,
      "adopte": 10170,
      "Sw": 10171,
      "##rench": 10172,
      "immig": 10173,
      "##erver": 10174,
      "network": 10175,
      "just": 10176,
      "Alberta": 10177,
      "Action": 10178,
      "great": 10179,
      "fondament": 10180,
      "Cer": 10181,
      "ailleurs": 10182,
      "poste": 10183,
      "Policy": 10184,
      "office": 10185,
      "##aitre": 10186,
      "LA": 10187,
      "permettre": 10188,
      "##stit": 10189,
      "providing": 10190,
      "meet": 10191,
      "administrative": 10192,
      "##ief": 10193,
      "##SI": 10194,
      "cust": 10195,
      "negoti": 10196,
      "histor": 10197,
      "##ither": 10198,
      "termes": 10199,
      "oeuvre": 10200,
      "500": 10201,
      "strong": 10202,
      "applicable": 10203,
      "promouvoir": 10204,
      "inten": 10205,
      "another": 10206,
      "practices": 10207,
      "disposition": 10208,
      "##lem": 10209,
      "trava": 10210,
      "##tors": 10211,
      "foreign": 10212,
      "reform": 10213,
      "efficacite": 10214,
      "radio": 10215,
      "##king": 10216,
      "##PS": 10217,
      "response": 10218,
      "##OL": 10219,
      "Port": 10220,
      "Inde": 10221,
      "##ferences": 10222,
      "##istres": 10223,
      "##aries": 10224,
      "cultural": 10225,
      "recent": 10226,
      "sout": 10227,
      "Pers": 10228,
      "THE": 10229,
      "##essite": 10230,
      "etudi": 10231,
      "Bar": 10232,
      "conform": 10233,
      "##poses": 10234,
      "utiliser": 10235,
      "alleg": 10236,
      "status": 10237,
      "Rapport": 10238,
      "exception": 10239,
      "##urement": 10240,
      "effectue": 10241,
      "resolutions": 10242,
      "reach": 10243,
      "##xim": 10244,
      "analysis": 10245,
      "##yer": 10246,
      "obtain": 10247,
      "47": 10248,
      "souvent": 10249,
      "employees": 10250,
      "##tations": 10251,
      "Trade": 10252,
      "##aus": 10253,
      "prob": 10254,
      "syn": 10255,
      "able": 10256,
      "##ols": 10257,
      "##ics": 10258,
      "involved": 10259,
      "##iture": 10260,
      "famille": 10261,
      "separ": 10262,
      "vac": 10263,
      "secteurs": 10264,
      "class": 10265,
      "cann": 10266,
      "zone": 10267,
      "changements": 10268,
      "vou": 10269,
      "Total": 10270,
      "enfant": 10271,
      "element": 10272,
      "##ablement": 10273,
      "principal": 10274,
      "partir": 10275,
      "obligation": 10276,
      "complain": 10277,
      "aucun": 10278,
      "##onnes": 10279,
      "far": 10280,
      "Gre": 10281,
      "##ournal": 10282,
      "cell": 10283,
      "##AM": 10284,
      "estime": 10285,
      "necessite": 10286,
      "##cher": 10287,
      "return": 10288,
      "facil": 10289,
      "trouver": 10290,
      "mor": 10291,
      "elabor": 10292,
      "proposal": 10293,
      "next": 10294,
      "##ils": 10295,
      "exigences": 10296,
      "solution": 10297,
      "54": 10298,
      "arrange": 10299,
      "internationaux": 10300,
      "##gement": 10301,
      "capacites": 10302,
      "##ames": 10303,
      "extre": 10304,
      "##rime": 10305,
      "marches": 10306,
      "mene": 10307,
      "Feb": 10308,
      "III": 10309,
      "62": 10310,
      "Ins": 10311,
      "approche": 10312,
      "##liques": 10313,
      "##itizens": 10314,
      "##portion": 10315,
      "distin": 10316,
      "96": 10317,
      "scientif": 10318,
      "Canadiens": 10319,
      "meetings": 10320,
      "High": 10321,
      "##mement": 10322,
      "harmon": 10323,
      "Child": 10324,
      "context": 10325,
      "Nor": 10326,
      "provinces": 10327,
      "activity": 10328,
      "##oit": 10329,
      "bureau": 10330,
      "Sci": 10331,
      "particulierement": 10332,
      "##change": 10333,
      "publication": 10334,
      "##ular": 10335,
      "economie": 10336,
      "monitoring": 10337,
      "partnership": 10338,
      "##orial": 10339,
      "wish": 10340,
      "partenaires": 10341,
      "46": 10342,
      "drug": 10343,
      "##DP": 10344,
      "destin": 10345,
      "product": 10346,
      "Initi": 10347,
      "low": 10348,
      "ordin": 10349,
      "pil": 10350,
      "conven": 10351,
      "orig": 10352,
      "purpose": 10353,
      "##poration": 10354,
      "permanent": 10355,
      "htm": 10356,
      "##eche": 10357,
      "suivants": 10358,
      "Ms": 10359,
      "Americ": 10360,
      "declare": 10361,
      "sent": 10362,
      "Dr": 10363,
      "Gene": 10364,
      "##tle": 10365,
      "##active": 10366,
      "increasing": 10367,
      "Jap": 10368,
      "sens": 10369,
      "domestic": 10370,
      "examiner": 10371,
      "Equ": 10372,
      "63": 10373,
      "wee": 10374,
      "Es": 10375,
[...]
